{
  "version": "1.0",
  "truncation": null,
  "padding": null,
  "added_tokens": [
    {
      "id": 0,
      "content": "[PAD]",
      "single_word": false,
      "lstrip": false,
      "rstrip": false,
      "normalized": false,
      "special": true
    },
    {
      "id": 1,
      "content": "[UNK]",
      "single_word": false,
      "lstrip": false,
      "rstrip": false,
      "normalized": false,
      "special": true
    },
    {
      "id": 2,
      "content": "[CLS]",
      "single_word": false,
      "lstrip": false,
      "rstrip": false,
      "normalized": false,
      "special": true
    },
    {
      "id": 3,
      "content": "[SEP]",
      "single_word": false,
      "lstrip": false,
      "rstrip": false,
      "normalized": false,
      "special": true
    },
    {
      "id": 4,
      "content": "<|endoftext|>",
      "single_word": false,
      "lstrip": false,
      "rstrip": false,
      "normalized": false,
      "special": true
    }
  ],
  "normalizer": null,
  "pre_tokenizer": {
    "type": "ByteLevel",
    "add_prefix_space": false,
    "trim_offsets": true,
    "use_regex": true
  },
  "post_processor": {
    "type": "ByteLevel",
    "add_prefix_space": true,
    "trim_offsets": true,
    "use_regex": true
  },
  "decoder": null,
  "model": {
    "type": "BPE",
    "dropout": null,
    "unk_token": "[UNK]",
    "continuing_subword_prefix": null,
    "end_of_word_suffix": null,
    "fuse_unk": false,
    "byte_fallback": false,
    "ignore_merges": false,
    "vocab": {
      "[PAD]": 0,
      "[UNK]": 1,
      "[CLS]": 2,
      "[SEP]": 3,
      "<|endoftext|>": 4,
      "!": 5,
      "\"": 6,
      "#": 7,
      "%": 8,
      "&": 9,
      "'": 10,
      "(": 11,
      ")": 12,
      "*": 13,
      "+": 14,
      ",": 15,
      "-": 16,
      ".": 17,
      "/": 18,
      "0": 19,
      "1": 20,
      "2": 21,
      "3": 22,
      "4": 23,
      "5": 24,
      "6": 25,
      "7": 26,
      "8": 27,
      "9": 28,
      ":": 29,
      ";": 30,
      "<": 31,
      "=": 32,
      ">": 33,
      "?": 34,
      "@": 35,
      "A": 36,
      "B": 37,
      "C": 38,
      "D": 39,
      "E": 40,
      "F": 41,
      "G": 42,
      "H": 43,
      "I": 44,
      "J": 45,
      "K": 46,
      "L": 47,
      "M": 48,
      "N": 49,
      "O": 50,
      "P": 51,
      "Q": 52,
      "R": 53,
      "S": 54,
      "T": 55,
      "U": 56,
      "V": 57,
      "W": 58,
      "X": 59,
      "Y": 60,
      "Z": 61,
      "[": 62,
      "]": 63,
      "^": 64,
      "_": 65,
      "`": 66,
      "a": 67,
      "b": 68,
      "c": 69,
      "d": 70,
      "e": 71,
      "f": 72,
      "g": 73,
      "h": 74,
      "i": 75,
      "j": 76,
      "k": 77,
      "l": 78,
      "m": 79,
      "n": 80,
      "o": 81,
      "p": 82,
      "q": 83,
      "r": 84,
      "s": 85,
      "t": 86,
      "u": 87,
      "v": 88,
      "w": 89,
      "x": 90,
      "y": 91,
      "z": 92,
      "{": 93,
      "|": 94,
      "}": 95,
      "~": 96,
      "Ċ": 97,
      "Č": 98,
      "č": 99,
      "Ġ": 100,
      "Ġt": 101,
      "Ġa": 102,
      "in": 103,
      "on": 104,
      "he": 105,
      "re": 106,
      "ti": 107,
      "čĊ": 108,
      "Ġs": 109,
      "Ġo": 110,
      "te": 111,
      "Ġthe": 112,
      "or": 113,
      "Ġof": 114,
      "tion": 115,
      "en": 116,
      "er": 117,
      "ra": 118,
      "Ġc": 119,
      "ing": 120,
      "Ġin": 121,
      "al": 122,
      "Ġw": 123,
      "es": 124,
      "Ġp": 125,
      "Ġf": 126,
      "is": 127,
      "nd": 128,
      "Ġm": 129,
      "Ġd": 130,
      "Ġ.": 131,
      "Ġn": 132,
      "ar": 133,
      "it": 134,
      "ro": 135,
      "ed": 136,
      "Ġb": 137,
      "ic": 138,
      "Ġl": 139,
      "ation": 140,
      "Ġe": 141,
      "Ġand": 142,
      "Ġto": 143,
      "Ġ(": 144,
      "an": 145,
      "el": 146,
      "as": 147,
      "ec": 148,
      "at": 149,
      "od": 150,
      "Ġre": 151,
      "le": 152,
      "im": 153,
      "ate": 154,
      "ent": 155,
      "Ġth": 156,
      "om": 157,
      "si": 158,
      "Ġfor": 159,
      "ce": 160,
      "Ġh": 161,
      "ĠT": 162,
      "ch": 163,
      "ly": 164,
      "ĠB": 165,
      "Ġg": 166,
      "et": 167,
      "ow": 168,
      "Ġst": 169,
      "ri": 170,
      "res": 171,
      "Ġcon": 172,
      "ur": 173,
      "ith": 174,
      "Ġis": 175,
      "Ġmod": 176,
      "ut": 177,
      "ter": 178,
      "ve": 179,
      "Ġ2": 180,
      "Ġon": 181,
      "ll": 182,
      "Ġv": 183,
      "Ġwith": 184,
      "ct": 185,
      "ĠA": 186,
      "us": 187,
      "ul": 188,
      "Ġas": 189,
      "DH": 190,
      "Ġmodel": 191,
      "am": 192,
      "ys": 193,
      "Ġpro": 194,
      "orm": 195,
      "ĠG": 196,
      "ĠBDH": 197,
      "ĠS": 198,
      "un": 199,
      "Ġat": 200,
      "Ġex": 201,
      "Ġwe": 202,
      "Ġbe": 203,
      "ig": 204,
      "ĠD": 205,
      "Ġ1": 206,
      "tic": 207,
      "ab": 208,
      "ran": 209,
      "yn": 210,
      "ĠR": 211,
      "Ġne": 212,
      "tem": 213,
      "Ġ=": 214,
      "form": 215,
      "pp": 216,
      "Ġcom": 217,
      "ge": 218,
      "ystem": 219,
      "ph": 220,
      "se": 221,
      "ĠE": 222,
      "ĠL": 223,
      "pa": 224,
      "Ġsystem": 225,
      "ay": 226,
      "Ġ20": 227,
      "ten": 228,
      "raph": 229,
      "ect": 230,
      "ear": 231,
      "Ġstate": 232,
      "ĠC": 233,
      "pres": 234,
      "ity": 235,
      "ĠM": 236,
      "ren": 237,
      "id": 238,
      "Ġsu": 239,
      "Ġgraph": 240,
      "cal": 241,
      "ction": 242,
      "Ġwh": 243,
      "ted": 244,
      "ure": 245,
      "ĠI": 246,
      "),": 247,
      "qu": 248,
      "Ġan": 249,
      "PU": 250,
      "st": 251,
      "Ġpa": 252,
      "ram": 253,
      "Ġthat": 254,
      "ĠP": 255,
      "ĠThe": 256,
      "ir": 257,
      "Ġk": 258,
      ").": 259,
      "rain": 260,
      "uron": 261,
      "GPU": 262,
      "put": 263,
      "ff": 264,
      "um": 265,
      "rans": 266,
      "Ġby": 267,
      "ich": 268,
      "ang": 269,
      "etw": 270,
      "tention": 271,
      "ot": 272,
      "per": 273,
      "amic": 274,
      "ynamic": 275,
      "ol": 276,
      "Ġare": 277,
      "Ġwhich": 278,
      "ĠF": 279,
      "Ġdis": 280,
      "Ġus": 281,
      "Ġdynamic": 282,
      "Ġapp": 283,
      "ĠH": 284,
      "ork": 285,
      "rib": 286,
      "iv": 287,
      "We": 288,
      "ap": 289,
      "il": 290,
      "Ġal": 291,
      "cture": 292,
      "Ġdynamics": 293,
      "Ġneuron": 294,
      "Ġit": 295,
      "rame": 296,
      "rom": 297,
      "sion": 298,
      "Ġsp": 299,
      "Ġha": 300,
      "Ġthis": 301,
      "eren": 302,
      "iz": 303,
      "Ġar": 304,
      "tive": 305,
      "Ġlo": 306,
      "ayer": 307,
      "la": 308,
      "ations": 309,
      "ment": 310,
      "age": 311,
      "ts": 312,
      "Ġmat": 313,
      ".,": 314,
      "und": 315,
      "Ġfrom": 316,
      "Ġac": 317,
      "Ġattention": 318,
      "ver": 319,
      "ĠU": 320,
      "Ġi": 321,
      "llow": 322,
      "ĠN": 323,
      "ally": 324,
      "tiv": 325,
      "ess": 326,
      "igh": 327,
      "ransform": 328,
      "Ġde": 329,
      "ru": 330,
      "Ġmodels": 331,
      "ĠIn": 332,
      "pl": 333,
      "xt": 334,
      "Ġlayer": 335,
      "angu": 336,
      "gh": 337,
      "Ġcan": 338,
      "ite": 339,
      "her": 340,
      "rameter": 341,
      "red": 342,
      "Ġfo": 343,
      "Ġtim": 344,
      "Ġpo": 345,
      "sid": 346,
      "ector": 347,
      "anguage": 348,
      "trib": 349,
      "Ġdi": 350,
      "Ġscal": 351,
      "Ġrepres": 352,
      "tribu": 353,
      "ĠO": 354,
      "Ġhave": 355,
      "ach": 356,
      "ple": 357,
      "ason": 358,
      "ection": 359,
      "able": 360,
      "th": 361,
      "ransformer": 362,
      "Ġtime": 363,
      "ain": 364,
      "inear": 365,
      "Ġreason": 366,
      "chite": 367,
      "Ġpar": 368,
      "Ġj": 369,
      "Ġ202": 370,
      "Ġarchite": 371,
      "ad": 372,
      "ting": 373,
      "ugh": 374,
      "Ġor": 375,
      "Ġparameter": 376,
      "Ġreasoning": 377,
      "10": 378,
      "ble": 379,
      "Ġtrain": 380,
      "ci": 381,
      "Ġvector": 382,
      "erence": 383,
      "ac": 384,
      "to": 385,
      "ral": 386,
      "Ġ-": 387,
      "Ġlanguage": 388,
      "Ġfollow": 389,
      "ference": 390,
      "ĠWe": 391,
      "Ġper": 392,
      "Ġappro": 393,
      "Ġform": 394,
      "Ġ201": 395,
      "Ġ0": 396,
      "Ġinter": 397,
      "Ġnod": 398,
      "een": 399,
      "Ġsh": 400,
      "Ġwhe": 401,
      "Ġnot": 402,
      "Ġconsid": 403,
      "ore": 404,
      "pre": 405,
      "ric": 406,
      "unction": 407,
      "etwork": 408,
      "ps": 409,
      "ural": 410,
      "ener": 411,
      "ĠTransformer": 412,
      "ome": 413,
      "Ġrepresent": 414,
      "Ġactiv": 415,
      "ension": 416,
      "Ġfunction": 417,
      "ence": 418,
      "Ġinte": 419,
      "Ġpartic": 420,
      "pret": 421,
      "Ġset": 422,
      "ased": 423,
      "earn": 424,
      "Ġsuch": 425,
      "Ġdistribu": 426,
      "if": 427,
      "Ġet": 428,
      "ĠJ": 429,
      "Ġed": 430,
      "his": 431,
      "les": 432,
      "rough": 433,
      "Ġarchitecture": 434,
      "ke": 435,
      "Ġcor": 436,
      "imension": 437,
      "ges": 438,
      "ree": 439,
      "Ġch": 440,
      "Ġbetw": 441,
      "ated": 442,
      "Ġgener": 443,
      "Ġbetween": 444,
      "fin": 445,
      "Ġnetwork": 446,
      "rix": 447,
      "mp": 448,
      "Ġim": 449,
      "ond": 450,
      "Ġthrough": 451,
      "ynap": 452,
      "Ġmatrix": 453,
      "pretation": 454,
      "ber": 455,
      "ther": 456,
      "ens": 457,
      "ech": 458,
      "pace": 459,
      "//": 460,
      "bs": 461,
      "tt": 462,
      "Ġhtt": 463,
      "lo": 464,
      "Ġ4": 465,
      "Ġdimension": 466,
      "Ġsystems": 467,
      "Ġits": 468,
      "Ġhttps": 469,
      "end": 470,
      "ern": 471,
      "Ġ,": 472,
      "RL": 473,
      "du": 474,
      "li": 475,
      "ici": 476,
      "Ġhas": 477,
      "Ġlocal": 478,
      "ĠURL": 479,
      "earning": 480,
      "://": 481,
      "ms": 482,
      "raction": 483,
      "anis": 484,
      "ign": 485,
      "Ġr": 486,
      "Ġsam": 487,
      "Ġsome": 488,
      "alu": 489,
      "Ġdes": 490,
      "ĠV": 491,
      "Ġra": 492,
      "Ġun": 493,
      "Ġexpres": 494,
      "Ġvectors": 495,
      "so": 496,
      "Ġ:": 497,
      "ĠK": 498,
      "ory": 499,
      "ication": 500,
      "vi": 501,
      "Ġspar": 502,
      "ill": 503,
      "of": 504,
      "vid": 505,
      "ong": 506,
      "Ġse": 507,
      "Ġco": 508,
      "all": 509,
      "Ġpre": 510,
      "Ġcomput": 511,
      "Ġneurons": 512,
      "ructure": 513,
      "Ġ+": 514,
      "ort": 515,
      "Ġinference": 516,
      "rank": 517,
      "ition": 518,
      "ari": 519,
      "Ġinterpretation": 520,
      "The": 521,
      "po": 522,
      "xim": 523,
      "Ġnat": 524,
      "Ġres": 525,
      "ernel": 526,
      "Ġall": 527,
      "ard": 528,
      "ical": 529,
      "Ġtok": 530,
      "ĠRe": 531,
      "up": 532,
      "Ġ3": 533,
      "Ġsynap": 534,
      "Ġover": 535,
      "Ġkernel": 536,
      "rect": 537,
      "Ġinput": 538,
      "Ġnum": 539,
      "Ġequ": 540,
      "Ġeff": 541,
      "Ġcomm": 542,
      "Ġnodes": 543,
      "Ġinteraction": 544,
      "Ġgeneral": 545,
      "Ġstructure": 546,
      "ular": 547,
      "Ġparameters": 548,
      "based": 549,
      "Ġsim": 550,
      "Ġlinear": 551,
      "echanis": 552,
      "ne": 553,
      "Ġout": 554,
      "text": 555,
      "Ġbrain": 556,
      "ces": 557,
      "Ġen": 558,
      "Ġad": 559,
      "erv": 560,
      "Ġmechanis": 561,
      "Ġdo": 562,
      "ĠThis": 563,
      "Ġprovid": 564,
      "Ġke": 565,
      "Ġusing": 566,
      "Ġsame": 567,
      "Ġnatural": 568,
      "tain": 569,
      "org": 570,
      "ast": 571,
      "Ġposi": 572,
      "ven": 573,
      "Ġgiv": 574,
      "cess": 575,
      "ding": 576,
      "Ġhe": 577,
      "Ġme": 578,
      "ant": 579,
      "ely": 580,
      "uld": 581,
      "Ġapproxim": 582,
      "icient": 583,
      "ĠY": 584,
      "Ġ|": 585,
      "Ġwill": 586,
      "Ġle": 587,
      "Ġconn": 588,
      "resp": 589,
      "pag": 590,
      "Ġused": 591,
      "Ġtraining": 592,
      "rices": 593,
      "Ġnumber": 594,
      "and": 595,
      "hi": 596,
      "ĠW": 597,
      "Ġoper": 598,
      "ational": 599,
      "cep": 600,
      "uring": 601,
      "Ġweigh": 602,
      "Ġmatrices": 603,
      "Ġdesc": 604,
      "Ġcommun": 605,
      "Ġ)": 606,
      "Ġtrans": 607,
      "Ġno": 608,
      "Ġnon": 609,
      "respond": 610,
      "ound": 611,
      "pro": 612,
      "Ġmore": 613,
      "odel": 614,
      "abil": 615,
      "ew": 616,
      "ered": 617,
      "ha": 618,
      "Ġy": 619,
      "ine": 620,
      "Ġsign": 621,
      "ass": 622,
      "ules": 623,
      "Ġdirect": 624,
      "Ġperform": 625,
      "Ġpositive": 626,
      "Ġgiven": 627,
      "de": 628,
      "for": 629,
      "we": 630,
      "ties": 631,
      "Ġeach": 632,
      "Ġspec": 633,
      "Ġdiff": 634,
      "Ġscale": 635,
      "Ġconsider": 636,
      "Ġactivation": 637,
      "Ġcorrespond": 638,
      "LU": 639,
      "ck": 640,
      "ix": 641,
      "Ġother": 642,
      "Ġcl": 643,
      "Ġinto": 644,
      "Ġlearning": 645,
      "Ġele": 646,
      "ask": 647,
      "ĠEn": 648,
      "Ġgraphs": 649,
      "ĠFor": 650,
      "Ġdefin": 651,
      "Ġ:=": 652,
      "00": 653,
      "low": 654,
      "ost": 655,
      "Ġtask": 656,
      "int": 657,
      "Ġem": 658,
      "Ġdisc": 659,
      "ize": 660,
      "ack": 661,
      "Ġfollowing": 662,
      "Ġconsidered": 663,
      "ific": 664,
      "pagation": 665,
      "ak": 666,
      "par": 667,
      "wo": 668,
      "Ġ5": 669,
      "Ġvari": 670,
      "Ġexp": 671,
      "Ġdistribution": 672,
      "ies": 673,
      "Ġ\"": 674,
      "eng": 675,
      "ase": 676,
      "Ġwhen": 677,
      "Ġrules": 678,
      "Ġsparse": 679,
      "Ġelement": 680,
      "act": 681,
      "free": 682,
      "ould": 683,
      "ary": 684,
      "Ġlow": 685,
      "Ġedges": 686,
      "os": 687,
      "Ġ`": 688,
      "Ġqu": 689,
      "Ġtwo": 690,
      "Ġab": 691,
      "Ġcontext": 692,
      "ĠCon": 693,
      "Ġsignal": 694,
      "out": 695,
      "ose": 696,
      "ses": 697,
      "sed": 698,
      "Ġone": 699,
      "ĠSection": 700,
      "ĠCom": 701,
      "Ġshow": 702,
      "ĠReLU": 703,
      "Ġ<": 704,
      "ented": 705,
      "ating": 706,
      "Ġprocess": 707,
      "Ġany": 708,
      "Ġpair": 709,
      "Ġinc": 710,
      "Ġway": 711,
      "Ġrel": 712,
      "Ġconcep": 713,
      "Ġver": 714,
      "Ġproble": 715,
      "Ġsub": 716,
      "laim": 717,
      "Ġlayers": 718,
      "Ġparticles": 719,
      "Ġdistributed": 720,
      "Ġdescrib": 721,
      "11": 722,
      "In": 723,
      "ss": 724,
      "ud": 725,
      "Ġsm": 726,
      "Ġspace": 727,
      "erg": 728,
      "Ġdec": 729,
      "Ġlar": 730,
      "ĠRn": 731,
      "Ġalso": 732,
      "bserv": 733,
      "Ġtoken": 734,
      "Ġtransl": 735,
      "Ġdifferen": 736,
      "Ġdiscus": 737,
      "man": 738,
      "space": 739,
      "Ġcap": 740,
      "Ġint": 741,
      "ise": 742,
      "Ġlong": 743,
      "ates": 744,
      "Ġvalu": 745,
      "Ġparticle": 746,
      "Ġsmall": 747,
      "Ġund": 748,
      "Ġso": 749,
      "ers": 750,
      "tern": 751,
      "Ġbeha": 752,
      "ability": 753,
      "ail": 754,
      "gram": 755,
      "ous": 756,
      "ual": 757,
      "ward": 758,
      "Ġpla": 759,
      "Ġhow": 760,
      "Ġneed": 761,
      "ĠPro": 762,
      "ization": 763,
      "Ġwhere": 764,
      "vior": 765,
      "Ġcommunication": 766,
      "Ġbehavior": 767,
      "02": 768,
      "ures": 769,
      "Ġx": 770,
      "Ġz": 771,
      "Ġup": 772,
      "ord": 773,
      "ĠAt": 774,
      "para": 775,
      "weigh": 776,
      "19": 777,
      "og": 778,
      "Ġ6": 779,
      "Ġ8": 780,
      "perim": 781,
      "Ġlog": 782,
      "Ġ2025": 783,
      "Ġnode": 784,
      "lock": 785,
      "Ġresul": 786,
      "Ġmechanism": 787,
      "Ġoperation": 788,
      "do": 789,
      "the": 790,
      "ving": 791,
      "ĠX": 792,
      "Ġob": 793,
      "urren": 794,
      "Ġmodular": 795,
      "tical": 796,
      "ables": 797,
      "Ġscales": 798,
      "Ġedge": 799,
      "Ġexpressi": 800,
      "Ġconnection": 801,
      "Ġdifferent": 802,
      "periment": 803,
      "ative": 804,
      "den": 805,
      "lis": 806,
      "vel": 807,
      "Ġro": 808,
      "tim": 809,
      "Ġsize": 810,
      "ings": 811,
      "Ġwork": 812,
      "its": 813,
      "rodu": 814,
      "ell": 815,
      "Ġass": 816,
      "Ġproper": 817,
      "fficient": 818,
      "Ġweights": 819,
      "Ġspecific": 820,
      "Ġelements": 821,
      "ced": 822,
      "iform": 823,
      "now": 824,
      "usi": 825,
      "vol": 826,
      "valu": 827,
      "Ġfin": 828,
      "ance": 829,
      "Ġ19": 830,
      "ĠHe": 831,
      "ized": 832,
      "Ġrepresentation": 833,
      "veness": 834,
      "ength": 835,
      "Ġunder": 836,
      "ie": 837,
      "sk": 838,
      "yp": 839,
      "ĠZ": 840,
      "Ġfe": 841,
      "Ġmay": 842,
      "Ġback": 843,
      "Ġthan": 844,
      "ulation": 845,
      "old": 846,
      "Ġclass": 847,
      "Ġvariables": 848,
      "doi": 849,
      "+)": 850,
      "16": 851,
      "ry": 852,
      "Ġq": 853,
      "Ġter": 854,
      "Ġduring": 855,
      "ata": 856,
      "resh": 857,
      "ĠDe": 858,
      "ĠModel": 859,
      "Ġnetworks": 860,
      "Ġassum": 861,
      "):": 862,
      "cod": 863,
      "Ġsel": 864,
      "Ġtheir": 865,
      "Ġpres": 866,
      "Ġbut": 867,
      "Ġblock": 868,
      "lear": 869,
      "ĠGy": 870,
      "Ġ10": 871,
      "idden": 872,
      "plic": 873,
      "achine": 874,
      "Ġfollows": 875,
      "Ġ2019": 876,
      "Ġeffect": 877,
      "neuron": 878,
      "Ġkeys": 879,
      "Ġplausi": 880,
      "'s": 881,
      "ption": 882,
      "pend": 883,
      "work": 884,
      "ĠQ": 885,
      "Ġallow": 886,
      "Ġinform": 887,
      "Ġwould": 888,
      "Ġframe": 889,
      "Ġmost": 890,
      "astic": 891,
      "ceed": 892,
      "ĠApp": 893,
      "ĠGs": 894,
      "Ġexperiment": 895,
      "Ġsufficient": 896,
      "oth": 897,
      "Ġuse": 898,
      "mpir": 899,
      "like": 900,
      "Ġsequ": 901,
      "ĠComput": 902,
      "Ġintrodu": 903,
      "Ġframework": 904,
      "56": 905,
      "This": 906,
      "av": 907,
      "cu": 908,
      "con": 909,
      "com": 910,
      "di": 911,
      "Ġent": 912,
      "Ġcase": 913,
      "ndom": 914,
      "Ġmin": 915,
      "Ġbi": 916,
      "Ġthresh": 917,
      "Ġonly": 918,
      "ĠSu": 919,
      "Ġexam": 920,
      "ĠDy": 921,
      "Ġif": 922,
      "ĠNe": 923,
      "plement": 924,
      "propagation": 925,
      "lowrank": 926,
      "Ġpairs": 927,
      "Ġproblem": 928,
      "ĠAttention": 929,
      "06": 930,
      "bly": 931,
      "op": 932,
      "pec": 933,
      "Ġaff": 934,
      "hes": 935,
      "rac": 936,
      "est": 937,
      "Ġfact": 938,
      "ator": 939,
      "ĠAn": 940,
      "ĠLinear": 941,
      "ĠLearning": 942,
      "Ġstatement": 943,
      "ĠClaim": 944,
      "uman": 945,
      "Ġtrained": 946,
      "Ġrandom": 947,
      "Ġkey": 948,
      "hib": 949,
      "weighting": 950,
      "lish": 951,
      ".<": 952,
      "13": 953,
      "Norm": 954,
      "ject": 955,
      "lu": 956,
      "ou": 957,
      "ov": 958,
      "Ġxt": 959,
      "Ġste": 960,
      "Ġwas": 961,
      "Ġbased": 962,
      "icro": 963,
      "Ġlength": 964,
      "ected": 965,
      "Ġrec": 966,
      "Ġhidden": 967,
      "Ġconc": 968,
      "Ġconst": 969,
      "Ġprogram": 970,
      "olog": 971,
      "ĠFig": 972,
      "ival": 973,
      "soci": 974,
      "Ġequival": 975,
      "Ġprovide": 976,
      "ĠEng": 977,
      "Ġdiscussion": 978,
      "12": 979,
      "14": 980,
      "DE": 981,
      "bin": 982,
      "ities": 983,
      "ma": 984,
      "Ġ{": 985,
      "Ġru": 986,
      "Ġsen": 987,
      "Ġthen": 988,
      "Ġclear": 989,
      "Ġpat": 990,
      "ode": 991,
      "Ġanal": 992,
      "Ġ2024": 993,
      "ensor": 994,
      "Ġtokens": 995,
      "Ġsynapses": 996,
      "Ġoutput": 997,
      "Ġencod": 998,
      "Ġmem": 999,
      "Ġmean": 1000,
      "Ġlarge": 1001,
      "Ġobtain": 1002,
      "Ġinformation": 1003,
      "ceedings": 1004,
      "ĠEnglish": 1005,
      "Ġrule": 1006,
      "18": 1007,
      "fer": 1008,
      "ied": 1009,
      "ian": 1010,
      "xi": 1011,
      "Ġ7": 1012,
      "Ġam": 1013,
      "Ġact": 1014,
      "hen": 1015,
      "tif": 1016,
      "Ġobserv": 1017,
      "ctures": 1018,
      "ulti": 1019,
      "ĠEq": 1020,
      "irst": 1021,
      "ircu": 1022,
      "Ġknow": 1023,
      "ads": 1024,
      "Ġmechanisms": 1025,
      "Ġnaturally": 1026,
      "Ġdirectly": 1027,
      "Ġtranslation": 1028,
      "Ġexpressiveness": 1029,
      "17": 1030,
      "cf": 1031,
      "linear": 1032,
      "sci": 1033,
      "Ġtensor": 1034,
      "Ġop": 1035,
      "Ġboth": 1036,
      "ĠAs": 1037,
      "ĠDE": 1038,
      "abs": 1039,
      "Ġnext": 1040,
      "Ġrepresented": 1041,
      "Ġformal": 1042,
      "Ġcho": 1043,
      "Ġcomputational": 1044,
      "Ġefficient": 1045,
      "Ġdoes": 1046,
      "Ġdefined": 1047,
      "Ġruleset": 1048,
      "Ġconcept": 1049,
      "urrent": 1050,
      "Ġmodularity": 1051,
      "Ġexample": 1052,
      "Ġaffin": 1053,
      "PT": 1054,
      "ik": 1055,
      "xiv": 1056,
      "Ġour": 1057,
      "Ġthese": 1058,
      "Ġcircu": 1059,
      "Ġpred": 1060,
      "Ġmain": 1061,
      "Ġmulti": 1062,
      "Ġbound": 1063,
      "ice": 1064,
      "ically": 1065,
      "Ġrem": 1066,
      "ysis": 1067,
      "ĠRd": 1068,
      "Ġcombin": 1069,
      "ĠIS": 1070,
      "Ġfunctions": 1071,
      "Ġcorre": 1072,
      "endix": 1073,
      "Ġuniform": 1074,
      "Ġsynapse": 1075,
      "Ġapproximate": 1076,
      "Ġtasks": 1077,
      "ĠProceedings": 1078,
      "Ġproperties": 1079,
      "Ġfeed": 1080,
      "Ġplausibly": 1081,
      "ĠAppendix": 1082,
      "))": 1083,
      "07": 1084,
      "97": 1085,
      "ake": 1086,
      "emp": 1087,
      "ful": 1088,
      "ion": 1089,
      "ile": 1090,
      "ike": 1091,
      "mit": 1092,
      "ough": 1093,
      "Ġu": 1094,
      "Ġtyp": 1095,
      "reweighting": 1096,
      "Ġsc": 1097,
      "ration": 1098,
      "Ġel": 1099,
      "Ġrest": 1100,
      "imit": 1101,
      "Ġhigh": 1102,
      "Ġhuman": 1103,
      "Ġgo": 1104,
      "Ġstud": 1105,
      "ries": 1106,
      "Ġvj": 1107,
      "ĠDx": 1108,
      "ide": 1109,
      "Ġappear": 1110,
      "tively": 1111,
      "Ġarchitectures": 1112,
      "Ġcomputing": 1113,
      "Ġkernels": 1114,
      "Ġinputs": 1115,
      "Ġcapt": 1116,
      "Ġvalues": 1117,
      "Ġconnections": 1118,
      "ski": 1119,
      "Ġterms": 1120,
      "Ġaffinity": 1121,
      "BDH": 1122,
      "Fig": 1123,
      "aus": 1124,
      "ep": 1125,
      "ove": 1126,
      "sis": 1127,
      "ssi": 1128,
      "ĠĠ": 1129,
      "Ġri": 1130,
      "eries": 1131,
      "Ġwell": 1132,
      "ĠfDE": 1133,
      "Ġdata": 1134,
      "ark": 1135,
      "arxiv": 1136,
      "Ġempir": 1137,
      "ases": 1138,
      "Ġbeen": 1139,
      "Ġbeing": 1140,
      "Ġcomple": 1141,
      "Ġpaper": 1142,
      "ilar": 1143,
      "Ġpoint": 1144,
      "Ġscaling": 1145,
      "tributed": 1146,
      "Ġ--": 1147,
      "finition": 1148,
      "ixed": 1149,
      "Ġexpect": 1150,
      "Ġincre": 1151,
      "Ġresults": 1152,
      "Ġunderst": 1153,
      "Ġbackpropagation": 1154,
      "Ġmemory": 1155,
      "ire": 1156,
      "iel": 1157,
      "ok": 1158,
      "port": 1159,
      "ves": 1160,
      "ymp": 1161,
      "ze": 1162,
      "Ġ[": 1163,
      "tes": 1164,
      "ingle": 1165,
      "Ġind": 1166,
      "istic": 1167,
      "Ġman": 1168,
      "Ġmicro": 1169,
      "Ġnow": 1170,
      "Ġbec": 1171,
      "Ġredu": 1172,
      "sition": 1173,
      "Ġpropagation": 1174,
      "ormal": 1175,
      "Ġext": 1176,
      "ĠRo": 1177,
      "sequ": 1178,
      "ĠCh": 1179,
      "Ġshort": 1180,
      "Ġactivations": 1181,
      "Ġsetting": 1182,
      "Ġimplement": 1183,
      "Ġexpressed": 1184,
      "Ġcomputation": 1185,
      "Ġprovided": 1186,
      "Ġapproximation": 1187,
      "Ġsequence": 1188,
      "Ġentries": 1189,
      "Ġequivalent": 1190,
      "Ġpredic": 1191,
      "36": 1192,
      "ag": 1193,
      "bb": 1194,
      "cy": 1195,
      "dition": 1196,
      "gree": 1197,
      "gative": 1198,
      "och": 1199,
      "pri": 1200,
      "pect": 1201,
      "sing": 1202,
      "uch": 1203,
      "Ġes": 1204,
      "rem": 1205,
      "Ġsol": 1206,
      "Ġsingle": 1207,
      "Ġthere": 1208,
      "ery": 1209,
      "Ġinde": 1210,
      "alid": 1211,
      "Ġfirst": 1212,
      "Ġfixed": 1213,
      "art": 1214,
      "ĠTh": 1215,
      "unt": 1216,
      "Ġnew": 1217,
      "Ġcomp": 1218,
      "ĠLanguage": 1219,
      "Ġwhile": 1220,
      "ĠPa": 1221,
      "ivers": 1222,
      "pled": 1223,
      "Ġpossi": 1224,
      "Ġlevel": 1225,
      "forward": 1226,
      "Ġconcepts": 1227,
      "Ġdescribed": 1228,
      "Ġvalue": 1229,
      "Ġupd": 1230,
      "value": 1231,
      "hibit": 1232,
      "Ġsenten": 1233,
      "Ġanalysis": 1234,
      "Ġchoice": 1235,
      "Ġcorrel": 1236,
      "ield": 1237,
      "25": 1238,
      "76": 1239,
      "96": 1240,
      "En": 1241,
      "For": 1242,
      "PE": 1243,
      "ever": 1244,
      "ia": 1245,
      "ub": 1246,
      "xpres": 1247,
      "hed": 1248,
      "Ġcall": 1249,
      "ross": 1250,
      "Ġbas": 1251,
      "ents": 1252,
      "Ġconsis": 1253,
      "Ġassoci": 1254,
      "ĠGi": 1255,
      "ĠSp": 1256,
      "ably": 1257,
      "Ġneural": 1258,
      "Ġcompa": 1259,
      "Ġappl": 1260,
      "Ġij": 1261,
      "ĠNew": 1262,
      "Ġappropri": 1263,
      "Ġspars": 1264,
      "Ġsynaptic": 1265,
      "Ġabove": 1266,
      "ĠConference": 1267,
      "Ġsignals": 1268,
      "Ġvery": 1269,
      "Ġself": 1270,
      "pendent": 1271,
      "Ġobserved": 1272,
      "scill": 1273,
      "Ġappropriate": 1274,
      "AS": 1275,
      "col": 1276,
      "ib": 1277,
      "ial": 1278,
      "ns": 1279,
      "ution": 1280,
      "uro": 1281,
      "Ġaf": 1282,
      "Ġaut": 1283,
      "tial": 1284,
      "Ġthey": 1285,
      "Ġcode": 1286,
      "alk": 1287,
      "Ġfre": 1288,
      "Ġlet": 1289,
      "Ġreal": 1290,
      "aten": 1291,
      "ower": 1292,
      "term": 1293,
      "Ġwithout": 1294,
      "ust": 1295,
      "ĠGPT": 1296,
      "Ġexpl": 1297,
      "ĠDi": 1298,
      "tent": 1299,
      "ĠMachine": 1300,
      "Ġappli": 1301,
      "Ġlook": 1302,
      "sider": 1303,
      "Ġ2018": 1304,
      "Ġshould": 1305,
      "Ġsimilar": 1306,
      "Ġcorresponding": 1307,
      "Ġemerg": 1308,
      "Ġqueries": 1309,
      "bservation": 1310,
      "Ġlonger": 1311,
      "Ġround": 1312,
      "Ġthreshold": 1313,
      "ology": 1314,
      "Figure": 1315,
      "Ġextrem": 1316,
      "ĠRoPE": 1317,
      "03": 1318,
      "15": 1319,
      "45": 1320,
      "bed": 1321,
      "em": 1322,
      "get": 1323,
      "most": 1324,
      "ually": 1325,
      "wise": 1326,
      "Ġtransform": 1327,
      "Ġtemp": 1328,
      "ract": 1329,
      "radi": 1330,
      "Ġclo": 1331,
      "Ġpul": 1332,
      "Ġbel": 1333,
      "Ġlike": 1334,
      "Ġevol": 1335,
      "Ġrely": 1336,
      "Ġrequ": 1337,
      "ĠTable": 1338,
      "etail": 1339,
      "ription": 1340,
      "urce": 1341,
      "Ġ256": 1342,
      "Ġvalid": 1343,
      "ĠAd": 1344,
      "Ġprob": 1345,
      "ĠGx": 1346,
      "ĠSt": 1347,
      "Ġexis": 1348,
      "Ġwere": 1349,
      "reng": 1350,
      "Ġacross": 1351,
      "ĠUn": 1352,
      "ĠIntern": 1353,
      "Ġ2022": 1354,
      "Ġapproach": 1355,
      "Ġchang": 1356,
      "Ġrate": 1357,
      "vious": 1358,
      "Ġcoord": 1359,
      "Ġequations": 1360,
      "Ġleast": 1361,
      "Ġweight": 1362,
      "Ġnoise": 1363,
      "aking": 1364,
      "Ġrelations": 1365,
      "Ġsmaller": 1366,
      "Ġsource": 1367,
      "context": 1368,
      "Ġpattern": 1369,
      "Ġcircuit": 1370,
      "Ġrestric": 1371,
      "Ġstudy": 1372,
      "Ġunderstand": 1373,
      "sequent": 1374,
      "bbian": 1375,
      "ASP": 1376,
      "Ġtempor": 1377,
      "Ġcoordin": 1378,
      ")+": 1379,
      "202": 1380,
      "De": 1381,
      "aw": 1382,
      "ling": 1383,
      "model": 1384,
      "pe": 1385,
      "ww": 1386,
      "zer": 1387,
      "Ġ/": 1388,
      "orch": 1389,
      "ality": 1390,
      "Ġpr": 1391,
      "edge": 1392,
      "Ġbu": 1393,
      "Ġtop": 1394,
      "econd": 1395,
      "oder": 1396,
      "Ġreg": 1397,
      "Ġstreng": 1398,
      "terpretation": 1399,
      "uster": 1400,
      "Ġproof": 1401,
      "ĠGe": 1402,
      "ĠLe": 1403,
      "ĠLayer": 1404,
      "parameter": 1405,
      "Ġsupp": 1406,
      "Ġwhat": 1407,
      "Ġpages": 1408,
      "ivid": 1409,
      "ght": 1410,
      "Ġ2020": 1411,
      "tocol": 1412,
      "Ġfollowed": 1413,
      "Ġrepresenting": 1414,
      "ĠJo": 1415,
      "echn": 1416,
      "icial": 1417,
      "view": 1418,
      "Ġprevious": 1419,
      "Ġsimpl": 1420,
      "Ġheads": 1421,
      "Ġcorrespondence": 1422,
      "Ġshown": 1423,
      "paration": 1424,
      "Ġfinding": 1425,
      "ĠModels": 1426,
      "Ġallows": 1427,
      "Ġexperiments": 1428,
      "pective": 1429,
      "Normfree": 1430,
      "Ġstep": 1431,
      "tificial": 1432,
      "Ġknown": 1433,
      "Ġpossible": 1434,
      "Ġcalled": 1435,
      "Ġextremely": 1436,
      ")).": 1437,
      "20": 1438,
      "23": 1439,
      "37": 1440,
      "cing": 1441,
      "gor": 1442,
      "med": 1443,
      "ring": 1444,
      "synap": 1445,
      "},": 1446,
      "Ġtre": 1447,
      "Ġtransformer": 1448,
      "Ġag": 1449,
      "ind": 1450,
      "ink": 1451,
      "onal": 1452,
      "Ġseen": 1453,
      "Ġoscill": 1454,
      "tex": 1455,
      "Ġtheore": 1456,
      "Ġtheory": 1457,
      "Ġpower": 1458,
      "Ġmerg": 1459,
      "Ġlearn": 1460,
      "Ġlimit": 1461,
      "ath": 1462,
      "oman": 1463,
      "Ġvi": 1464,
      "ĠAI": 1465,
      "Ġprodu": 1466,
      "ĠEuro": 1467,
      "ĠIt": 1468,
      "olding": 1469,
      "Ġhand": 1470,
      "Ġloss": 1471,
      "ples": 1472,
      "Ġorth": 1473,
      "acro": 1474,
      "totic": 1475,
      "Ġpers": 1476,
      "Ġ2014": 1477,
      "ified": 1478,
      "Ġgenerally": 1479,
      "Ġdesign": 1480,
      "Ġgeneralization": 1481,
      "Ġembed": 1482,
      "Ġprocessing": 1483,
      "Ġproblems": 1484,
      "mantic": 1485,
      "ĠHebbian": 1486,
      "Ġeffects": 1487,
      "ĠNeural": 1488,
      "Ġrecurrent": 1489,
      "Ġobtained": 1490,
      "Ġoptim": 1491,
      "ymptotic": 1492,
      "ochastic": 1493,
      "Ġcompu": 1494,
      "ibat": 1495,
      "ĠInternational": 1496,
      "zero": 1497,
      "44": 1498,
      "98": 1499,
      "Fr": 1500,
      "Pt": 1501,
      "SA": 1502,
      "SN": 1503,
      "arac": 1504,
      "cl": 1505,
      "mod": 1506,
      "ned": 1507,
      "norm": 1508,
      "ty": 1509,
      "ĠčĊ": 1510,
      "Ġtechn": 1511,
      "ors": 1512,
      "ences": 1513,
      "err": 1514,
      "Ġcla": 1515,
      "Ġinvol": 1516,
      "ison": 1517,
      "istributed": 1518,
      "arch": 1519,
      "round": 1520,
      "Ġeven": 1521,
      "atory": 1522,
      "Ġread": 1523,
      "Ġthose": 1524,
      "sive": 1525,
      "cement": 1526,
      "Ġgradi": 1527,
      "Ġstochastic": 1528,
      "Ġcondition": 1529,
      "Ġpromp": 1530,
      "Ġ13": 1531,
      "Ġ200": 1532,
      "rench": 1533,
      "ility": 1534,
      "sions": 1535,
      "Ġhapp": 1536,
      "ĠUSA": 1537,
      "Ġ2021": 1538,
      "Ġwhether": 1539,
      "Ġcharac": 1540,
      "bsection": 1541,
      "Ġrun": 1542,
      "Ġsee": 1543,
      "Ġpreparation": 1544,
      "Ġrespect": 1545,
      "Ġinteractions": 1546,
      "Ġsimple": 1547,
      "Ġprovides": 1548,
      "Ġdescription": 1549,
      "inton": 1550,
      "parison": 1551,
      "Ġexpected": 1552,
      "Ġabout": 1553,
      "Ġlarg": 1554,
      "avy": 1555,
      "Ġminibat": 1556,
      "Ġbias": 1557,
      "ĠSubsection": 1558,
      "ĠISSN": 1559,
      "ought": 1560,
      "Ġindivid": 1561,
      "Ġimplementation": 1562,
      "Ġprediction": 1563,
      "iversal": 1564,
      "Ġassociated": 1565,
      "Ġsparsity": 1566,
      "Ġapplied": 1567,
      "racting": 1568,
      "Ġpulse": 1569,
      "Ġprobability": 1570,
      "Ġchanges": 1571,
      "Ġtemporal": 1572,
      "Ġperspective": 1573,
      "Pro": 1574,
      "Re": 1575,
      "SH": 1576,
      "atic": 1577,
      "cted": 1578,
      "eh": 1579,
      "gu": 1580,
      "ip": 1581,
      "oc": 1582,
      "pt": 1583,
      "tur": 1584,
      "with": 1585,
      "Ġ9": 1586,
      "Ġid": 1587,
      "Ġtran": 1588,
      "Ġable": 1589,
      "read": 1590,
      "tis": 1591,
      "tially": 1592,
      "erve": 1593,
      "ertain": 1594,
      "Ġword": 1595,
      "ese": 1596,
      "Ġprac": 1597,
      "Ġmon": 1598,
      "Ġmachine": 1599,
      "Ġmuch": 1600,
      "Ġden": 1601,
      "Ġnn": 1602,
      "road": 1603,
      "Ġbroad": 1604,
      "Ġeas": 1605,
      "Ġrese": 1606,
      "Ġrela": 1607,
      "Ġthree": 1608,
      "omin": 1609,
      "owever": 1610,
      "ress": 1611,
      "Ġconf": 1612,
      "Ġcont": 1613,
      "llel": 1614,
      "ulate": 1615,
      "Ġasymptotic": 1616,
      "ticle": 1617,
      "present": 1618,
      "Ġsuit": 1619,
      "Ġsubs": 1620,
      "ĠFin": 1621,
      "ĠHinton": 1622,
      "lain": 1623,
      "ĠNetwork": 1624,
      "Ġdegree": 1625,
      "Ġfound": 1626,
      "Ġdire": 1627,
      "Ġpart": 1628,
      "Ġtrainable": 1629,
      "cial": 1630,
      "aches": 1631,
      "Ġrepresentations": 1632,
      "ify": 1633,
      "Ġchos": 1634,
      "Ġimport": 1635,
      "anish": 1636,
      "Ġcould": 1637,
      "pose": 1638,
      "Ġadmit": 1639,
      "Ġheavy": 1640,
      "Ġyt": 1641,
      "Ġperformed": 1642,
      "Ġperformance": 1643,
      "Ġspecial": 1644,
      "Ġcorresponds": 1645,
      "Ġdefinition": 1646,
      "Ġexplain": 1647,
      "Ġinclu": 1648,
      "Ġrelated": 1649,
      "Ġsubject": 1650,
      "Ġdescribe": 1651,
      "ĠRnn": 1652,
      "wards": 1653,
      "Ġresult": 1654,
      "ieve": 1655,
      "Ġassumption": 1656,
      "Ġintroduced": 1657,
      "Ġthresholding": 1658,
      "Ġconstru": 1659,
      "Ġprograms": 1660,
      "Ġindependent": 1661,
      "hibitory": 1662,
      "Ġexplan": 1663,
      "Ġexists": 1664,
      "Ġrelationshi": 1665,
      "parameters": 1666,
      "Ġorthant": 1667,
      "Ġtransition": 1668,
      "Ġchosen": 1669,
      "48": 1670,
      "53": 1671,
      "CM": 1672,
      "Es": 1673,
      "LP": 1674,
      "],": 1675,
      "ages": 1676,
      "co": 1677,
      "ee": 1678,
      "fr": 1679,
      "ij": 1680,
      "not": 1681,
      "tor": 1682,
      "ugu": 1683,
      "Ġ>": 1684,
      "Ġtake": 1685,
      "Ġach": 1686,
      "Ġaction": 1687,
      "here": 1688,
      "tice": 1689,
      "Ġspa": 1690,
      "Ġcar": 1691,
      "Ġcertain": 1692,
      "Ġwalk": 1693,
      "Ġph": 1694,
      "Ġpl": 1695,
      "ange": 1696,
      "ances": 1697,
      "ecess": 1698,
      "Ġreli": 1699,
      "Ġrefer": 1700,
      "Ġhig": 1701,
      "Ġhold": 1702,
      "ets": 1703,
      "etric": 1704,
      "ĠAll": 1705,
      "Ġprotocol": 1706,
      "ĠSci": 1707,
      "Ġexec": 1708,
      "pping": 1709,
      "ĠEx": 1710,
      "ĠThen": 1711,
      "ĠFrench": 1712,
      "ived": 1713,
      "izing": 1714,
      "izes": 1715,
      "Ġartificial": 1716,
      "Ġdepend": 1717,
      "Ġorg": 1718,
      "Ġapproaches": 1719,
      "Ġ2017": 1720,
      "ĠTransformers": 1721,
      "Ġactivity": 1722,
      "Ġparticular": 1723,
      "ortugu": 1724,
      "negative": 1725,
      "Ġadap": 1726,
      "Ġconsidering": 1727,
      "osemantic": 1728,
      "udes": 1729,
      "Ġdecoder": 1730,
      "Ġintu": 1731,
      "Ġneeds": 1732,
      "ĠDefinition": 1733,
      "Ġassume": 1734,
      "Ġsufficiently": 1735,
      "ĠComputing": 1736,
      "Ġsteps": 1737,
      "Ġencoder": 1738,
      "Ġefficiently": 1739,
      "Ġtype": 1740,
      "Ġcapture": 1741,
      "Ġempirical": 1742,
      "agonal": 1743,
      "Ġsentences": 1744,
      "Ġcorrelation": 1745,
      "Ġconsistent": 1746,
      "Ġafter": 1747,
      "Ġfreq": 1748,
      "Ġtransformation": 1749,
      "etails": 1750,
      "Ġtopology": 1751,
      "ĠLayerNorm": 1752,
      "Ġproduct": 1753,
      "Ġlarger": 1754,
      "Ġindividual": 1755,
      "Ġhigher": 1756,
      "ortuguese": 1757,
      "--": 1758,
      ".)": 1759,
      "04": 1760,
      "24": 1761,
      "49": 1762,
      "68": 1763,
      "BN": 1764,
      "Observation": 1765,
      "ai": 1766,
      "ays": 1767,
      "atis": 1768,
      "ches": 1769,
      "der": 1770,
      "ey": 1771,
      "gre": 1772,
      "lT": 1773,
      "ledge": 1774,
      "ning": 1775,
      "net": 1776,
      "ood": 1777,
      "osi": 1778,
      "pulation": 1779,
      "tal": 1780,
      "ull": 1781,
      "yt": 1782,
      "Ġ#": 1783,
      "Ġend": 1784,
      "Ġtail": 1785,
      "ines": 1786,
      "hem": 1787,
      "hema": 1788,
      "tio": 1789,
      "Ġsyn": 1790,
      "Ġserv": 1791,
      "tely": 1792,
      "teri": 1793,
      "Ġthem": 1794,
      "Ġcru": 1795,
      "Ġinhibitory": 1796,
      "estion": 1797,
      "Ġpass": 1798,
      "Ġfew": 1799,
      "ism": 1800,
      "ision": 1801,
      "Ġma": 1802,
      "Ġmess": 1803,
      "Ġnecess": 1804,
      "arting": 1805,
      "ropo": 1806,
      "Ġlis": 1807,
      "Ġlaw": 1808,
      "Ġevalu": 1809,
      "ective": 1810,
      "lying": 1811,
      "Ġcontain": 1812,
      "urther": 1813,
      "ters": 1814,
      "llig": 1815,
      "ĠACM": 1816,
      "ĠDistributed": 1817,
      "Ġ15": 1818,
      "ĠRnd": 1819,
      "ĠRoman": 1820,
      "ĠLSH": 1821,
      "earch": 1822,
      "ĠMLP": 1823,
      "rent": 1824,
      "Ġsuc": 1825,
      "query": 1826,
      "ume": 1827,
      "ĠHowever": 1828,
      "Ġneuronal": 1829,
      "tivation": 1830,
      "plication": 1831,
      "Ġtimes": 1832,
      "Ġscalar": 1833,
      "ĠOn": 1834,
      "rict": 1835,
      "Ġchain": 1836,
      "berg": 1837,
      "Ġdimensions": 1838,
      "Ġsepara": 1839,
      "Ġprec": 1840,
      "Ġequation": 1841,
      "Ġhere": 1842,
      "ĠYang": 1843,
      "Ġconnector": 1844,
      "Ġoperations": 1845,
      "Ġnote": 1846,
      "Ġperforming": 1847,
      "Ġdistributions": 1848,
      "Ġquestion": 1849,
      "ĠConsider": 1850,
      "Ġtranslate": 1851,
      "Ġterm": 1852,
      "Ġpresent": 1853,
      "ĠGye": 1854,
      "ĠGyi": 1855,
      "Ġallowing": 1856,
      "Ġfacts": 1857,
      "Ġpath": 1858,
      "Ġmeans": 1859,
      "iking": 1860,
      "Ġbounded": 1861,
      "ĠISBN": 1862,
      "Ġright": 1863,
      "Ġempirically": 1864,
      "Ġcomplex": 1865,
      "Ġreduction": 1866,
      "Ġcompared": 1867,
      "Ġunderstanding": 1868,
      "Definition": 1869,
      "Ġstrength": 1870,
      "gorith": 1871,
      "medi": 1872,
      "error": 1873,
      "Ġmonosemantic": 1874,
      "Ġsuitable": 1875,
      "Ġrelationship": 1876,
      "ropout": 1877,
      "lligence": 1878,
      "096": 1879,
      "58": 1880,
      "73": 1881,
      "93": 1882,
      "OC": 1883,
      "RASP": 1884,
      "SM": 1885,
      "XL": 1886,
      "ba": 1887,
      "ctive": 1888,
      "cated": 1889,
      "fl": 1890,
      "io": 1891,
      "ier": 1892,
      "ired": 1893,
      "kt": 1894,
      "ld": 1895,
      "less": 1896,
      "mm": 1897,
      "mented": 1898,
      "ner": 1899,
      "nal": 1900,
      "run": 1901,
      "ste": 1902,
      "ved": 1903,
      "yper": 1904,
      "Ġtes": 1905,
      "ince": 1906,
      "onom": 1907,
      "Ġsection": 1908,
      "Ġslow": 1909,
      "enable": 1910,
      "ency": 1911,
      "rate": 1912,
      "rated": 1913,
      "rallel": 1914,
      "Ġca": 1915,
      "Ġclaim": 1916,
      "Ġcurrent": 1917,
      "ingu": 1918,
      "Ġpub": 1919,
      "Ġfield": 1920,
      "isual": 1921,
      "Ġmo": 1922,
      "Ġlaten": 1923,
      "Ġtowards": 1924,
      "ectively": 1925,
      "Ġrepe": 1926,
      "ime": 1927,
      "Ġthus": 1928,
      "sif": 1929,
      "siveness": 1930,
      "ceived": 1931,
      "ĠTo": 1932,
      "ĠBy": 1933,
      "Ġgu": 1934,
      "eth": 1935,
      "owski": 1936,
      "Ġstr": 1937,
      "Ġstand": 1938,
      "Ġstrict": 1939,
      "rid": 1940,
      "llust": 1941,
      "ĠAl": 1942,
      "Ġmodeling": 1943,
      "ament": 1944,
      "ĠGz": 1945,
      "ĠGraph": 1946,
      "ĠGPU": 1947,
      "ĠGxi": 1948,
      "ĠSSM": 1949,
      "uniform": 1950,
      "Ġ12": 1951,
      "ĠRa": 1952,
      "temp": 1953,
      "Ġcompo": 1954,
      "Ġcompara": 1955,
      "Ġwhose": 1956,
      "quation": 1957,
      "ĠPortuguese": 1958,
      "irm": 1959,
      "Ġalmost": 1960,
      "ments": 1961,
      "very": 1962,
      "ĠNat": 1963,
      "Ġpoten": 1964,
      "Ġpopulation": 1965,
      "Ġorder": 1966,
      "ache": 1967,
      "Ġnotably": 1968,
      "Ġetc": 1969,
      "Ġimplic": 1970,
      "bserve": 1971,
      "Ġratio": 1972,
      "Ġexpress": 1973,
      "hile": 1974,
      "ĠWith": 1975,
      "Ġdefine": 1976,
      "akes": 1977,
      "particle": 1978,
      "Ġvariant": 1979,
      "Ġability": 1980,
      "Ġsubsequent": 1981,
      "ailed": 1982,
      "Ġlogic": 1983,
      "Ġproperty": 1984,
      "Ġpreserv": 1985,
      "mpirical": 1986,
      "Ġbiolog": 1987,
      "xiom": 1988,
      "Ġamenable": 1989,
      "ĠAssoci": 1990,
      "Ġrulesets": 1991,
      "Ġmultiple": 1992,
      "Ġremain": 1993,
      "ĠRdn": 1994,
      "978": 1995,
      "Ġincreases": 1996,
      "Ġbecom": 1997,
      "Ġestim": 1998,
      "xpressiveness": 1999,
      "ĠSpanish": 2000,
      "Ġapplic": 2001,
      "Ġapplication": 2002,
      "Ġemergence": 2003,
      "Ġclos": 2004,
      "Ġpatterns": 2005,
      "Ġcoordinates": 2006,
      "Ġprim": 2007,
      "Ġfindings": 2008,
      "Ġtransformers": 2009,
      "Ġoscillator": 2010,
      "Ġtheoretical": 2011,
      "Ġembedding": 2012,
      "Proof": 2013,
      "Ġiden": 2014,
      "Ġexplanation": 2015,
      "Ġachieve": 2016,
      "Ġcarry": 2017,
      "Ġholds": 2018,
      "mediate": 2019,
      "21": 2020,
      "38": 2021,
      "40": 2022,
      "47": 2023,
      "75": 2024,
      "88": 2025,
      "At": 2026,
      "Bj": 2027,
      "Con": 2028,
      "Round": 2029,
      "Table": 2030,
      "bit": 2031,
      "cent": 2032,
      "cache": 2033,
      "eed": 2034,
      "field": 2035,
      "iqu": 2036,
      "jk": 2037,
      "su": 2038,
      "sim": 2039,
      "tailed": 2040,
      "vant": 2041,
      "vances": 2042,
      "wh": 2043,
      "where": 2044,
      "Ġ'": 2045,
      "Ġ),": 2046,
      "Ġerror": 2047,
      "Ġtaking": 2048,
      "inte": 2049,
      "inci": 2050,
      "interpretation": 2051,
      "herent": 2052,
      "Ġsecond": 2053,
      "Ġobserve": 2054,
      "orld": 2055,
      "tions": 2056,
      "rag": 2057,
      "Ġcre": 2058,
      "Ġwind": 2059,
      "Ġpur": 2060,
      "Ġmacro": 2061,
      "arm": 2062,
      "itors": 2063,
      "ick": 2064,
      "Ġev": 2065,
      "Ġtoy": 2066,
      "Ġtoget": 2067,
      "Ġtotal": 2068,
      "Ġ(-": 2069,
      "elf": 2070,
      "Ġrefl": 2071,
      "sian": 2072,
      "size": 2073,
      "chm": 2074,
      "ĠBeng": 2075,
      "Ġcontributed": 2076,
      "Ġones": 2077,
      "Ġvisual": 2078,
      "ĠAc": 2079,
      "ĠGv": 2080,
      "ĠSo": 2081,
      "ĠSome": 2082,
      "Ġexact": 2083,
      "Ġ16": 2084,
      "ticles": 2085,
      "Ġcompres": 2086,
      "ĠEmpirical": 2087,
      "ĠIf": 2088,
      "ĠTheory": 2089,
      "ument": 2090,
      "Ġdynamical": 2091,
      "ĠHi": 2092,
      "Ġspiking": 2093,
      "Ġarbit": 2094,
      "law": 2095,
      "laration": 2096,
      "ighb": 2097,
      "plemented": 2098,
      "1016": 2099,
      "Ġ2013": 2100,
      "Ġinterpret": 2101,
      "Ġnotation": 2102,
      "Ġrepresents": 2103,
      "Ġinteracting": 2104,
      "Ġeditors": 2105,
      "Ġimpro": 2106,
      "Ġimplemented": 2107,
      "log": 2108,
      "Ġsampled": 2109,
      "ĠKV": 2110,
      "Ġcount": 2111,
      "point": 2112,
      "ĠRepresent": 2113,
      "Ġ32": 2114,
      "ularity": 2115,
      "Ġsimulation": 2116,
      "Ġposition": 2117,
      "Ġlead": 2118,
      "Ġconnected": 2119,
      "abilities": 2120,
      "Ġcluster": 2121,
      "Ġshowing": 2122,
      "Ġincl": 2123,
      "Ġdiscuss": 2124,
      "ypot": 2125,
      "Ġpresented": 2126,
      "Ġblocks": 2127,
      "Ġplausible": 2128,
      "Ġsequences": 2129,
      "ĠComputation": 2130,
      "Ġintroduce": 2131,
      "Ġentry": 2132,
      "lusions": 2133,
      "Ġconcern": 2134,
      "Ġoutputs": 2135,
      "Ġknowledge": 2136,
      "Ġformalism": 2137,
      "Ġmaintain": 2138,
      "Ġcombination": 2139,
      "Ġsched": 2140,
      "Ġappears": 2141,
      "ause": 2142,
      "aussian": 2143,
      "istics": 2144,
      "Ġsentence": 2145,
      "Ġbasis": 2146,
      "ĠNewman": 2147,
      "Ġemergent": 2148,
      "Ġrounds": 2149,
      "Ġevolving": 2150,
      "Ġrequire": 2151,
      "ĠAdvances": 2152,
      "Ġmerged": 2153,
      "Ġtechniqu": 2154,
      "Ġclara": 2155,
      "Ġgradient": 2156,
      "Ġhappen": 2157,
      "Ġminibatches": 2158,
      "Ġwords": 2159,
      "Ġdeno": 2160,
      "Ġimportant": 2161,
      "Ġrelies": 2162,
      "Ġcrucial": 2163,
      "Ġnecessary": 2164,
      "Ġlaws": 2165,
      "yperparameters": 2166,
      "Ġlatent": 2167,
      "Ġstrong": 2168,
      "Ġstandard": 2169,
      "ĠAssociation": 2170,
      "Attention": 2171,
      "Ġwindow": 2172,
      "Ġtogether": 2173,
      "ĠBengio": 2174,
      "Ġarbitra": 2175,
      "ĠRepresentations": 2176,
      "Ġschedul": 2177,
      ")),": 2178,
      "35": 2179,
      "43": 2180,
      "55": 2181,
      "72": 2182,
      "83": 2183,
      "Bi": 2184,
      "Ch": 2185,
      "He": 2186,
      "Li": 2187,
      "Model": 2188,
      "Ne": 2189,
      "Th": 2190,
      "Torch": 2191,
      "cit": 2192,
      "city": 2193,
      "dimension": 2194,
      "ev": 2195,
      "fore": 2196,
      "gres": 2197,
      "hu": 2198,
      "har": 2199,
      "hys": 2200,
      "ira": 2201,
      "ipp": 2202,
      "ited": 2203,
      "iary": 2204,
      "know": 2205,
      "mb": 2206,
      "mun": 2207,
      "mits": 2208,
      "over": 2209,
      "pr": 2210,
      "pid": 2211,
      "pla": 2212,
      "sp": 2213,
      "tin": 2214,
      "train": 2215,
      "ue": 2216,
      "ymm": 2217,
      "yTorch": 2218,
      "Ġ]": 2219,
      "Ġtar": 2220,
      "Ġtension": 2221,
      "Ġtree": 2222,
      "Ġtorch": 2223,
      "review": 2224,
      "Ġoften": 2225,
      "enari": 2226,
      "enreview": 2227,
      "Ġpast": 2228,
      "Ġfast": 2229,
      "ish": 2230,
      "Ġmake": 2231,
      "Ġmeth": 2232,
      "Ġmakes": 2233,
      "Ġdens": 2234,
      "ither": 2235,
      "ics": 2236,
      "Ġlast": 2237,
      "Ġevery": 2238,
      "Ġ((": 2239,
      "ele": 2240,
      "oding": 2241,
      "level": 2242,
      "entrated": 2243,
      "Ġhard": 2244,
      "ĠBrain": 2245,
      "ĠBack": 2246,
      "Ġstarting": 2247,
      "Ġconver": 2248,
      "uth": 2249,
      "uting": 2250,
      "Ġwithin": 2251,
      "ĠALi": 2252,
      "ĠSim": 2253,
      "ĠSpar": 2254,
      "ĠSpec": 2255,
      "Ġextern": 2256,
      "Ġexhib": 2257,
      "Ġexhibit": 2258,
      "Ġweak": 2259,
      "ĠRes": 2260,
      "ĠRASP": 2261,
      "Ġnegative": 2262,
      "Ġcomparison": 2263,
      "ystems": 2264,
      "see": 2265,
      "ĠExpres": 2266,
      "ĠEquation": 2267,
      "ĠLet": 2268,
      "pacity": 2269,
      "ĠChen": 2270,
      "ĠMark": 2271,
      "ĠIm": 2272,
      "sta": 2273,
      "ĠPress": 2274,
      "ĠPyTorch": 2275,
      "ĠFe": 2276,
      "ĠFrom": 2277,
      "Ġhaving": 2278,
      "Ġarri": 2279,
      "Ġactive": 2280,
      "Ġillust": 2281,
      "ight": 2282,
      "Ġdeal": 2283,
      "Ġdevel": 2284,
      "Ġdiagonal": 2285,
      "ĠOp": 2286,
      "ĠObservation": 2287,
      "ade": 2288,
      "Ġpertur": 2289,
      "Ġ2016": 2290,
      "Ġshor": 2291,
      "Ġintelligence": 2292,
      "Ġsetup": 2293,
      "Ġchange": 2294,
      "fine": 2295,
      "Ġ4096": 2296,
      "Ġlocalized": 2297,
      "Ġrapid": 2298,
      "Ġuniversal": 2299,
      "Ġexpressing": 2300,
      "Ġsparsif": 2301,
      "Ġprepa": 2302,
      "Ġnature": 2303,
      "Ġcommon": 2304,
      "cessive": 2305,
      "Ġadj": 2306,
      "Ġadmits": 2307,
      "Ġdoi": 2308,
      "Ġleads": 2309,
      "cept": 2310,
      "Ġsignific": 2311,
      "degree": 2312,
      "forum": 2313,
      "Ġclar": 2314,
      "parl": 2315,
      "Ġprocesses": 2316,
      "Ġvertex": 2317,
      "Ġdecay": 2318,
      "Ġdiscussed": 2319,
      "Ġcapabilities": 2320,
      "Ġneeded": 2321,
      "Ġzer": 2322,
      "Ġlogical": 2323,
      "urrency": 2324,
      "Ġexpressive": 2325,
      "Ġfind": 2326,
      "ĠZh": 2327,
      "Ġqj": 2328,
      "ĠDeep": 2329,
      "Ġframeworks": 2330,
      "openreview": 2331,
      "Ġconcaten": 2332,
      "Ġconcentrated": 2333,
      "Ġconstrain": 2334,
      "Ġequivalence": 2335,
      "Ġsense": 2336,
      "Ġcircuits": 2337,
      "Ġapproximately": 2338,
      "Ġscenari": 2339,
      "ĠvjT": 2340,
      "ĠDxE": 2341,
      "Ġcaptures": 2342,
      "Ġrijk": 2343,
      "Ġindic": 2344,
      "Ġmany": 2345,
      "Ġsolving": 2346,
      "Ġindex": 2347,
      "ĠThus": 2348,
      "Ġupdated": 2349,
      "Ġcorrelations": 2350,
      "Ġvalidation": 2351,
      "ĠGxe": 2352,
      "ĠState": 2353,
      "Ġrestriction": 2354,
      "Ġrestricted": 2355,
      "www": 2356,
      "ĠJoh": 2357,
      "Ġpreviously": 2358,
      "Ġtreated": 2359,
      "ĠEuroparl": 2360,
      "Ġcomputer": 2361,
      "cluster": 2362,
      "Ġ2005": 2363,
      "Ġpractice": 2364,
      "Ġresearch": 2365,
      "Ġcontra": 2366,
      "Ġspaces": 2367,
      "Ġprotocols": 2368,
      "Ġintuition": 2369,
      "Ġmessage": 2370,
      "Ġlisting": 2371,
      "Ġcomplexity": 2372,
      "Ġtested": 2373,
      "onomous": 2374,
      "Ġcapacity": 2375,
      "Ġcomparable": 2376,
      "xiomatic": 2377,
      "Ġincludes": 2378,
      "Ġscheduler": 2379,
      "dimensional": 2380,
      "ymmetric": 2381,
      "Ġtarget": 2382,
      "Ġmethod": 2383,
      "ĠALiBi": 2384,
      "Ġdevelop": 2385,
      "Ġperturb": 2386,
      "',": 2387,
      ",-": 2388,
      "01": 2389,
      "26": 2390,
      "256": 2391,
      "62": 2392,
      "86": 2393,
      "99": 2394,
      "Claim": 2395,
      "Esta": 2396,
      "Gx": 2397,
      "Gz": 2398,
      "If": 2399,
      "Lin": 2400,
      "Par": 2401,
      "ST": 2402,
      "are": 2403,
      "app": 2404,
      "bra": 2405,
      "bound": 2406,
      "back": 2407,
      "ded": 2408,
      "dimit": 2409,
      "expressiveness": 2410,
      "fri": 2411,
      "found": 2412,
      "fact": 2413,
      "ires": 2414,
      "ive": 2415,
      "ki": 2416,
      "ks": 2417,
      "ken": 2418,
      "lin": 2419,
      "length": 2420,
      "me": 2421,
      "min": 2422,
      "mat": 2423,
      "nn": 2424,
      "nan": 2425,
      "nection": 2426,
      "nual": 2427,
      "node": 2428,
      "normal": 2429,
      "ocal": 2430,
      "ollow": 2431,
      "ored": 2432,
      "oeh": 2433,
      "pn": 2434,
      "pth": 2435,
      "path": 2436,
      "ron": 2437,
      "scal": 2438,
      "ta": 2439,
      "tri": 2440,
      "table": 2441,
      "ux": 2442,
      "utes": 2443,
      "way": 2444,
      "Ġ@": 2445,
      "Ġide": 2446,
      "Ġ978": 2447,
      "Ġtun": 2448,
      "Ġav": 2449,
      "Ġaux": 2450,
      "inc": 2451,
      "one": 2452,
      "ones": 2453,
      "till": 2454,
      "Ġsatis": 2455,
      "Ġopp": 2456,
      "Ġomit": 2457,
      "tend": 2458,
      "oring": 2459,
      "ering": 2460,
      "Ġcri": 2461,
      "Ġwarm": 2462,
      "Ġfraction": 2463,
      "Ġfurther": 2464,
      "ndeed": 2465,
      "Ġmap": 2466,
      "Ġmade": 2467,
      "Ġdetails": 2468,
      "Ġnam": 2469,
      "Ġnormal": 2470,
      "rop": 2471,
      "roxim": 2472,
      "edu": 2473,
      "Ġben": 2474,
      "Ġbest": 2475,
      "Ġlate": 2476,
      "Ġless": 2477,
      "Ġlangu": 2478,
      "Ġlif": 2479,
      "Ġlink": 2480,
      "Ġeither": 2481,
      "Ġ(\"": 2482,
      "ani": 2483,
      "aster": 2484,
      "asure": 2485,
      "Ġrecal": 2486,
      "imin": 2487,
      "Ġforward": 2488,
      "Ġhyperparameters": 2489,
      "ĠTuring": 2490,
      "chil": 2491,
      "ĠBj": 2492,
      "Ġstru": 2493,
      "Ġstart": 2494,
      "riou": 2495,
      "Ġconven": 2496,
      "uristic": 2497,
      "ĠAr": 2498,
      "amp": 2499,
      "Ġproject": 2500,
      "ĠSymp": 2501,
      "Ġattemp": 2502,
      "Ġexten": 2503,
      "Ġexcit": 2504,
      "ĠData": 2505,
      "ĠDropout": 2506,
      "Ġ14": 2507,
      "Ġ17": 2508,
      "Ġ100": 2509,
      "ĠLingu": 2510,
      "padimit": 2511,
      "Ġ2010": 2512,
      "Ġ2000": 2513,
      "ects": 2514,
      "ĠChi": 2515,
      "ĠMc": 2516,
      "ĠMod": 2517,
      "ĠMicro": 2518,
      "Ġsum": 2519,
      "ĠIs": 2520,
      "Ġanot": 2521,
      "state": 2522,
      "Ġparallel": 2523,
      "iring": 2524,
      "Ġkt": 2525,
      "uma": 2526,
      "pers": 2527,
      "perv": 2528,
      "ynamics": 2529,
      "olume": 2530,
      "Ġdispla": 2531,
      "Ġuses": 2532,
      "iliary": 2533,
      "Ġalign": 2534,
      "Ġalgorith": 2535,
      "izations": 2536,
      "Ġarg": 2537,
      "Ġmatch": 2538,
      "veral": 2539,
      "verned": 2540,
      "ĠNot": 2541,
      "ĠInterpretation": 2542,
      "Ġcannot": 2543,
      "Ġ2023": 2544,
      "token": 2545,
      "Ġforms": 2546,
      "Ġ2011": 2547,
      "Ġ2015": 2548,
      "Ġintermediate": 2549,
      "Ġactivate": 2550,
      "Ġinteg": 2551,
      "Ġsets": 2552,
      "lob": 2553,
      "local": 2554,
      "endly": 2555,
      "Ġrather": 2556,
      "Ġseveral": 2557,
      "Ġcoun": 2558,
      "Ġcomputations": 2559,
      "posed": 2560,
      "Ġ37": 2561,
      "Ġoutcom": 2562,
      "Ġhel": 2563,
      "Ġheuristic": 2564,
      "Ġapproximations": 2565,
      "Ġcommunic": 2566,
      "Ġcommunity": 2567,
      "Ġtransfer": 2568,
      "ifically": 2569,
      "Ġlower": 2570,
      "osowski": 2571,
      "ĠComparison": 2572,
      "Ġversion": 2573,
      "Ġdescribing": 2574,
      "Ġdescribes": 2575,
      "1145": 2576,
      "order": 2577,
      "Ġrot": 2578,
      "Ġrole": 2579,
      "times": 2580,
      "Ġ199": 2581,
      "ief": 2582,
      "ĠZi": 2583,
      "Ġfeat": 2584,
      "Ġqi": 2585,
      "plicator": 2586,
      "asticity": 2587,
      "Ġuseful": 2588,
      "ĠComputational": 2589,
      "Ġminim": 2590,
      "ĠDyE": 2591,
      "ĠNeuron": 2592,
      "hesis": 2593,
      "Ġrecent": 2594,
      "Ġconstant": 2595,
      "Ġamong": 2596,
      "tified": 2597,
      "Ġtensors": 2598,
      "Ġcombinations": 2599,
      "Ġfeedforward": 2600,
      "Ġtypes": 2601,
      "Ġelect": 2602,
      "Ġelastic": 2603,
      "Ġgoverned": 2604,
      "ĠChain": 2605,
      "Ġsettings": 2606,
      "Ġupdate": 2607,
      "Ġupdates": 2608,
      "Ġbasel": 2609,
      "ĠGij": 2610,
      "Ġautonomous": 2611,
      "Ġbelow": 2612,
      "Ġrelying": 2613,
      "ĠUniversal": 2614,
      "sequently": 2615,
      "Ġcoordinate": 2616,
      "2025": 2617,
      "pean": 2618,
      "Ġprinci": 2619,
      "Ġbuck": 2620,
      "Ġregard": 2621,
      "Ġsupport": 2622,
      "Ġsimplified": 2623,
      "ringer": 2624,
      "Ġaggre": 2625,
      "Ġmerging": 2626,
      "Ġview": 2627,
      "ĠEuropean": 2628,
      "Ġprompt": 2629,
      "Ġprompts": 2630,
      "Ġbroadc": 2631,
      "Ġeasy": 2632,
      "ĠFinally": 2633,
      "ĠNetworks": 2634,
      "Ġdirection": 2635,
      "Ġdirected": 2636,
      "Ġincluding": 2637,
      "Ġinclude": 2638,
      "Ġconstruction": 2639,
      "count": 2640,
      "Ġplasticity": 2641,
      "Ġdepends": 2642,
      "Ġorgan": 2643,
      "osium": 2644,
      "hemical": 2645,
      "teriz": 2646,
      "ĠRomanid": 2647,
      "Ġsuccessive": 2648,
      "Ġconnectors": 2649,
      "runcated": 2650,
      "ridge": 2651,
      "Ġbecomes": 2652,
      "Ġapplicable": 2653,
      "Ġcarrying": 2654,
      "Consider": 2655,
      "which": 2656,
      "Ġpurpose": 2657,
      "ypothesis": 2658,
      "Neuron": 2659,
      "irable": 2660,
      "known": 2661,
      "munication": 2662,
      "Ġdensity": 2663,
      "ĠSpecifically": 2664,
      "ĠExpressing": 2665,
      "ĠMarkov": 2666,
      "Ġzeros": 2667,
      "Ġperturbation": 2668,
      "friendly": 2669,
      "oehn": 2670,
      "Ġauxiliary": 2671,
      "Ġlanguages": 2672,
      "ĠSymposium": 2673,
      "padimitriou": 2674,
      "Ġanother": 2675,
      "Ġoutcomes": 2676,
      "Ġaggreg": 2677,
      "\".": 2678,
      "\"),": 2679,
      ")-": 2680,
      ",)": 2681,
      "..": 2682,
      "05": 2683,
      "09": 2684,
      "110": 2685,
      "27": 2686,
      "29": 2687,
      "200": 2688,
      "33": 2689,
      "57": 2690,
      "66": 2691,
      "87": 2692,
      "Cun": 2693,
      "Dx": 2694,
      "Dai": 2695,
      "EE": 2696,
      "Eyt": 2697,
      "Gs": 2698,
      "GPT": 2699,
      "Koehn": 2700,
      "LM": 2701,
      "LR": 2702,
      "NG": 2703,
      "NN": 2704,
      "RA": 2705,
      "Ran": 2706,
      "St": 2707,
      "Su": 2708,
      "Spar": 2709,
      "While": 2710,
      "Xiv": 2711,
      "ah": 2712,
      "az": 2713,
      "cor": 2714,
      "come": 2715,
      "cond": 2716,
      "claration": 2717,
      "clusions": 2718,
      "ds": 2719,
      "dle": 2720,
      "ef": 2721,
      "equ": 2722,
      "efficient": 2723,
      "gener": 2724,
      "gges": 2725,
      "ground": 2726,
      "ien": 2727,
      "ily": 2728,
      "ible": 2729,
      "lic": 2730,
      "lxt": 2731,
      "line": 2732,
      "ml": 2733,
      "our": 2734,
      "oll": 2735,
      "ount": 2736,
      "pon": 2737,
      "pus": 2738,
      "qi": 2739,
      "qj": 2740,
      "qk": 2741,
      "rd": 2742,
      "ris": 2743,
      "ton": 2744,
      "tter": 2745,
      "trodu": 2746,
      "uer": 2747,
      "wn": 2748,
      "world": 2749,
      "yond": 2750,
      "znan": 2751,
      "}.": 2752,
      "Ġir": 2753,
      "Ġ//": 2754,
      "Ġest": 2755,
      "Ġuma": 2756,
      "inform": 2757,
      "ints": 2758,
      "infor": 2759,
      "onens": 2760,
      "til": 2761,
      "tire": 2762,
      "tition": 2763,
      "Ġsci": 2764,
      "Ġsof": 2765,
      "Ġsince": 2766,
      "Ġsymmetric": 2767,
      "Ġoff": 2768,
      "Ġcal": 2769,
      "Ġcaus": 2770,
      "Ġcoding": 2771,
      "Ġini": 2772,
      "Ġinfin": 2773,
      "Ġindu": 2774,
      "Ġinherent": 2775,
      "ale": 2776,
      "almost": 2777,
      "Ġwj": 2778,
      "Ġwri": 2779,
      "Ġways": 2780,
      "Ġpor": 2781,
      "Ġpri": 2782,
      "Ġput": 2783,
      "Ġponens": 2784,
      "Ġfund": 2785,
      "Ġflow": 2786,
      "Ġfaster": 2787,
      "iser": 2788,
      "ised": 2789,
      "isely": 2790,
      "istor": 2791,
      "nded": 2792,
      "Ġmaking": 2793,
      "Ġdclaration": 2794,
      "Ġnorm": 2795,
      "Ġnomin": 2796,
      "itly": 2797,
      "edEn": 2798,
      "edia": 2799,
      "Ġln": 2800,
      "Ġlim": 2801,
      "Ġevid": 2802,
      "asing": 2803,
      "athema": 2804,
      "Ġreference": 2805,
      "Ġreweighting": 2806,
      "Ġreport": 2807,
      "Ġretri": 2808,
      "Ġreplicator": 2809,
      "sig": 2810,
      "sitive": 2811,
      "ĠTrain": 2812,
      "ĠBer": 2813,
      "ĠBar": 2814,
      "Ġgate": 2815,
      "Ġglob": 2816,
      "rig": 2817,
      "Ġcontribu": 2818,
      "Ġconceived": 2819,
      "Ġconsequently": 2820,
      "Ġmodus": 2821,
      "Ġ23": 2822,
      "Ġ25": 2823,
      "Ġonce": 2824,
      "ulated": 2825,
      "Ġaspect": 2826,
      "Ġpropag": 2827,
      "ĠGaussian": 2828,
      "ĠSchm": 2829,
      "ĠSystems": 2830,
      "Ġbefore": 2831,
      "Ġbeyond": 2832,
      "ĠDa": 2833,
      "ĠDj": 2834,
      "ĠDetails": 2835,
      "tics": 2836,
      "abel": 2837,
      "ĠRound": 2838,
      "Ġcomplement": 2839,
      "ĠEi": 2840,
      "ĠEt": 2841,
      "ĠEach": 2842,
      "ĠLi": 2843,
      "ĠLLM": 2844,
      "Ġ2006": 2845,
      "ecting": 2846,
      "ĠMo": 2847,
      "ĠMan": 2848,
      "ĠMach": 2849,
      "ĠMathema": 2850,
      "idel": 2851,
      "idhu": 2852,
      "Ġsugges": 2853,
      "ĠIndeed": 2854,
      "stra": 2855,
      "structure": 2856,
      "Ġpage": 2857,
      "ĠPr": 2858,
      "ĠPre": 2859,
      "ĠPage": 2860,
      "ĠPhys": 2861,
      "ĠThese": 2862,
      "umar": 2863,
      "oting": 2864,
      "ĠFirst": 2865,
      "ĠFormal": 2866,
      "Ġdisting": 2867,
      "Ġdistin": 2868,
      "ĠHv": 2869,
      "iven": 2870,
      "ape": 2871,
      "Ġalread": 2872,
      "Ġspread": 2873,
      "Ġaccount": 2874,
      "ĠUznan": 2875,
      "ĠNY": 2876,
      "Ġdeep": 2877,
      "Ġdepth": 2878,
      "plit": 2879,
      "plies": 2880,
      "plete": 2881,
      "1007": 2882,
      "cies": 2883,
      "Ġactivated": 2884,
      "ĠJan": 2885,
      "Ġcorrect": 2886,
      "Ġcorpus": 2887,
      "Ġimpa": 2888,
      "Ġimplication": 2889,
      "Ġimplies": 2890,
      "Ġitself": 2891,
      "ĠVector": 2892,
      "Ġuna": 2893,
      "ĠKa": 2894,
      "ĠKosowski": 2895,
      "Ġcou": 2896,
      "itional": 2897,
      "position": 2898,
      "Ġnumer": 2899,
      "Ġequipp": 2900,
      "Ġenough": 2901,
      "Ġentire": 2902,
      "Ġadvant": 2903,
      "Ġhead": 2904,
      "Ġmeasure": 2905,
      "ĠYork": 2906,
      "Ġlea": 2907,
      "ĠWh": 2908,
      "ĠWang": 2909,
      "Ġoperate": 2910,
      "Ġweighted": 2911,
      "Ġcommunities": 2912,
      "program": 2913,
      "Ġyear": 2914,
      "ford": 2915,
      "Ġdifference": 2916,
      "Ġconsiderations": 2917,
      "Ġdefining": 2918,
      "002": 2919,
      "Ġemer": 2920,
      "Ġemulate": 2921,
      "Ġvariable": 2922,
      "ĠConclusions": 2923,
      "Ġrelate": 2924,
      "Ġcapable": 2925,
      "Ġplacement": 2926,
      "Ġobject": 2927,
      "lished": 2928,
      "Ġworks": 2929,
      "sky": 2930,
      "Ġexperimentally": 2931,
      "Ġintroducing": 2932,
      "Ġexamples": 2933,
      "ĠAnnual": 2934,
      "max": 2935,
      "Ġanaly": 2936,
      "Ġencoded": 2937,
      "Ġmemor": 2938,
      "Ġmeaning": 2939,
      "Ġactual": 2940,
      "Ġactually": 2941,
      "Ġobservation": 2942,
      "linearities": 2943,
      "Ġmultiplication": 2944,
      "Ġremark": 2945,
      "ions": 2946,
      "Ġhumans": 2947,
      "Ġgoal": 2948,
      "Ġcomplete": 2949,
      "Ġunderstood": 2950,
      "Ġmanip": 2951,
      "Ġbecome": 2952,
      "Ġbecause": 2953,
      "Ġesed": 2954,
      "Ġsolve": 2955,
      "ĠThrough": 2956,
      "ĠPapadimitriou": 2957,
      "iversity": 2958,
      "Ġconsists": 2959,
      "ĠSpringer": 2960,
      "utionary": 2961,
      "Ġfrequ": 2962,
      "ĠGPTXL": 2963,
      "Ġlookup": 2964,
      "4576": 2965,
      "Ġclose": 2966,
      "Ġbelief": 2967,
      "Ġrequired": 2968,
      "etailed": 2969,
      "ĠUniversity": 2970,
      "Ġstrengthe": 2971,
      "synapse": 2972,
      "synapses": 2973,
      "Ġpowerful": 2974,
      "Ġoptimal": 2975,
      "Ġoptimized": 2976,
      "Ġcompute": 2977,
      "archical": 2978,
      "Ġgradients": 2979,
      "Ġhappens": 2980,
      "Ġminibatch": 2981,
      "ReLU": 2982,
      "Ġpractical": 2983,
      "Ġrelax": 2984,
      "Ġconfirm": 2985,
      "Ġassumptions": 2986,
      "Ġphra": 2987,
      "ĠScience": 2988,
      "Ġexecution": 2989,
      "ĠExperiment": 2990,
      "Ġadaptive": 2991,
      "Ġsynta": 2992,
      "Ġseparately": 2993,
      "Ġprecisely": 2994,
      "Ġpaths": 2995,
      "ierarchical": 2996,
      "Ġslower": 2997,
      "Ġpublic": 2998,
      "Ġimplications": 2999,
      "Ġpreserving": 3000,
      "Ġbiological": 3001,
      "Ġremains": 3002,
      "Ġclosely": 3003,
      "interacting": 3004,
      "Ġcreate": 3005,
      "Ġcompression": 3006,
      "ighbor": 3007,
      "Ġinterpretability": 3008,
      "Ġimprove": 3009,
      "Ġpositional": 3010,
      "Ġdenote": 3011,
      "Thought": 3012,
      "gressive": 3013,
      "ĠBackpropagation": 3014,
      "Ġexternal": 3015,
      "Ġexhibits": 3016,
      "ĠOpen": 3017,
      "Ġshorter": 3018,
      "Ġsparsification": 3019,
      "Ġconstraints": 3020,
      "Ġcontrast": 3021,
      "Ġdevelopment": 3022,
      "Particles": 3023,
      "Ġsatisf": 3024,
      "Ġrecall": 3025,
      "Ġexcitatory": 3026,
      "ĠLinguistics": 3027,
      "pervised": 3028,
      "Ġargument": 3029,
      "ĠNotation": 3030,
      "Ġbroadcast": 3031,
      "terized": 3032,
      "...,": 3033,
      "Rank": 3034,
      "Ġsoft": 3035,
      "Ġcalc": 3036,
      "Ġwrite": 3037,
      "Ġprior": 3038,
      "Ġfundament": 3039,
      "ĠSchmidhu": 3040,
      "Ġcomplementary": 3041,
      "ĠPageRank": 3042,
      "Ġdistingu": 3043,
      "Ġalready": 3044,
      "Ġequipped": 3045,
      "Ġsyntax": 3046,
      "ĠSchmidhuber": 3047,
      "\",": 3048,
      "()": 3049,
      "(-": 3050,
      "+,": 3051,
      ".),": 3052,
      "016": 3053,
      "013": 3054,
      "22": 3055,
      "34": 3056,
      "39": 3057,
      "41": 3058,
      "42": 3059,
      "50": 3060,
      "54": 3061,
      "60": 3062,
      "<<": 3063,
      "Cj": 3064,
      "Em": 3065,
      "Fin": 3066,
      "HE": 3067,
      "LN": 3068,
      "Layer": 3069,
      "No": 3070,
      "Now": 3071,
      "PS": 3072,
      "Pa": 3073,
      "TF": 3074,
      "Transformer": 3075,
      "TOC": 3076,
      "Un": 3077,
      "action": 3078,
      "air": 3079,
      "bi": 3080,
      "by": 3081,
      "block": 3082,
      "bility": 3083,
      "cc": 3084,
      "cus": 3085,
      "dn": 3086,
      "dis": 3087,
      "dec": 3088,
      "eff": 3089,
      "ft": 3090,
      "gy": 3091,
      "graph": 3092,
      "hchil": 3093,
      "iec": 3094,
      "iam": 3095,
      "itive": 3096,
      "jor": 3097,
      "ka": 3098,
      "ls": 3099,
      "lation": 3100,
      "layer": 3101,
      "link": 3102,
      "ming": 3103,
      "mable": 3104,
      "no": 3105,
      "oy": 3106,
      "oid": 3107,
      "oint": 3108,
      "sz": 3109,
      "some": 3110,
      "such": 3111,
      "tu": 3112,
      "uk": 3113,
      "uz": 3114,
      "ule": 3115,
      "uly": 3116,
      "uted": 3117,
      "ude": 3118,
      "vir": 3119,
      "vast": 3120,
      "ying": 3121,
      "zy": 3122,
      "Ġess": 3123,
      "Ġ],": 3124,
      "Ġte": 3125,
      "Ġtru": 3126,
      "Ġtend": 3127,
      "Ġaround": 3128,
      "inis": 3129,
      "inery": 3130,
      "onen": 3131,
      "onment": 3132,
      "tig": 3133,
      "Ġsl": 3134,
      "Ġsizes": 3135,
      "Ġsearch": 3136,
      "Ġstill": 3137,
      "Ġocc": 3138,
      "ention": 3139,
      "entially": 3140,
      "erst": 3141,
      "Ġcf": 3142,
      "Ġcol": 3143,
      "Ġcore": 3144,
      "Ġcell": 3145,
      "Ġcases": 3146,
      "Ġinsp": 3147,
      "alysis": 3148,
      "Ġwire": 3149,
      "Ġwires": 3150,
      "Ġpas": 3151,
      "Ġfle": 3152,
      "Ġfav": 3153,
      "iss": 3154,
      "Ġmi": 3155,
      "Ġmid": 3156,
      "Ġmix": 3157,
      "Ġdk": 3158,
      "Ġdid": 3159,
      "Ġdropout": 3160,
      "Ġdetailed": 3161,
      "itting": 3162,
      "roll": 3163,
      "Ġbase": 3164,
      "Ġbridge": 3165,
      "icul": 3166,
      "Ġlik": 3167,
      "Ġlabel": 3168,
      "ano": 3169,
      "elves": 3170,
      "eck": 3171,
      "atch": 3172,
      "attention": 3173,
      "Ġretain": 3174,
      "Ġreceived": 3175,
      "Ġreinfor": 3176,
      "letter": 3177,
      "entually": 3178,
      "Ġthings": 3179,
      "Ġthought": 3180,
      "omposition": 3181,
      "Ġhierarchical": 3182,
      "ĠTalk": 3183,
      "ĠTruncated": 3184,
      "chang": 3185,
      "chastic": 3186,
      "change": 3187,
      "ĠBE": 3188,
      "Ġgro": 3189,
      "Ġstd": 3190,
      "rial": 3191,
      "rily": 3192,
      "rivast": 3193,
      "Ġconsequ": 3194,
      "urse": 3195,
      "urnal": 3196,
      "uts": 3197,
      "utter": 3198,
      "Ġ24": 3199,
      "Ġ28": 3200,
      "Ġvt": 3201,
      "Ġvoc": 3202,
      "Ġvolume": 3203,
      "ĠAm": 3204,
      "ĠAij": 3205,
      "ĠAxiomatic": 3206,
      "uss": 3207,
      "usen": 3208,
      "ampled": 3209,
      "ysical": 3210,
      "Ġprom": 3211,
      "Ġprove": 3212,
      "Ġproceed": 3213,
      "ĠGu": 3214,
      "ĠGener": 3215,
      "ĠSI": 3216,
      "ĠSet": 3217,
      "ĠSab": 3218,
      "ĠSto": 3219,
      "ĠSTOC": 3220,
      "unedEn": 3221,
      "Ġexpa": 3222,
      "Ġextend": 3223,
      "ĠDP": 3224,
      "ĠDuring": 3225,
      "Ġ18": 3226,
      "tically": 3227,
      "abet": 3228,
      "ĠRs": 3229,
      "ĠRNN": 3230,
      "former": 3231,
      "ppose": 3232,
      "gebra": 3233,
      "phabet": 3234,
      "ĠEe": 3235,
      "ĠLin": 3236,
      "ĠLocal": 3237,
      "Ġ2048": 3238,
      "ĠCA": 3239,
      "ĠMa": 3240,
      "ĠMn": 3241,
      "ĠMr": 3242,
      "ĠMay": 3243,
      "caling": 3244,
      "Ġanch": 3245,
      "ĠPer": 3246,
      "Ġki": 3247,
      "umn": 3248,
      "ranslation": 3249,
      "angling": 3250,
      "olve": 3251,
      "Ġareas": 3252,
      "ĠFast": 3253,
      "ĠFurther": 3254,
      "Ġdistor": 3255,
      "Ġusers": 3256,
      "Ġusually": 3257,
      "Ġapply": 3258,
      "ĠHu": 3259,
      "ĠHen": 3260,
      "ĠHutter": 3261,
      "aps": 3262,
      "apla": 3263,
      "Ġalphabet": 3264,
      "Ġspe": 3265,
      "ĠarXiv": 3266,
      "Ġmathema": 3267,
      "Ġaccess": 3268,
      "vers": 3269,
      "ĠUTF": 3270,
      "ĠNon": 3271,
      "tivity": 3272,
      "Ġdefer": 3273,
      "ĠInform": 3274,
      "pling": 3275,
      "herry": 3276,
      "Ġfour": 3277,
      "Ġfocus": 3278,
      "side": 3279,
      "thought": 3280,
      "Ġreasonable": 3281,
      "chitecture": 3282,
      "Ġparts": 3283,
      "adeh": 3284,
      "adford": 3285,
      "109": 3286,
      "cian": 3287,
      "ciet": 3288,
      "Ġformally": 3289,
      "Ġformulation": 3290,
      "Ġ2012": 3291,
      "Ġ08": 3292,
      "Ġintended": 3293,
      "key": 3294,
      "Ġcortex": 3295,
      "Ġchall": 3296,
      "Ġgenerate": 3297,
      "Ġdimensionality": 3298,
      "lied": 3299,
      "lipping": 3300,
      "liament": 3301,
      "iciency": 3302,
      "Ġlocally": 3303,
      "Ġsometimes": 3304,
      "Ġdesirable": 3305,
      "ĠVa": 3306,
      "Ġune": 3307,
      "Ġunsu": 3308,
      "illa": 3309,
      "illions": 3310,
      "illiam": 3311,
      "Ġcoinc": 3312,
      "Ġcourse": 3313,
      "ortun": 3314,
      "Ġrespec": 3315,
      "Ġrespon": 3316,
      "Ġresolve": 3317,
      "Ġ38": 3318,
      "Ġoverview": 3319,
      "Ġequal": 3320,
      "Ġeffectively": 3321,
      "Ġgenerality": 3322,
      "Ġoutcome": 3323,
      "Ġeng": 3324,
      "Ġenvir": 3325,
      "Ġadding": 3326,
      "Ġaddition": 3327,
      "Ġgives": 3328,
      "ĠWhen": 3329,
      "ĠWhile": 3330,
      "Ġnoted": 3331,
      "Ġnonlinearities": 3332,
      "hausen": 3333,
      "ineering": 3334,
      "Ġperforms": 3335,
      "dependent": 3336,
      "Ġdifficul": 3337,
      "paring": 3338,
      "Ġ50": 3339,
      "arying": 3340,
      "oshchil": 3341,
      "ĠConnection": 3342,
      "Ġshows": 3343,
      "Ġprocessed": 3344,
      "Ġpairwise": 3345,
      "Ġverified": 3346,
      "Ġsubmod": 3347,
      "1137": 3348,
      "ergent": 3349,
      "Ġdecision": 3350,
      "Ġdecomposition": 3351,
      "Ġtranslations": 3352,
      "Ġdifferences": 3353,
      "mann": 3354,
      "Ġcapability": 3355,
      "Ġhowever": 3356,
      "ĠProcess": 3357,
      "Ġxl": 3358,
      "ords": 3359,
      "weights": 3360,
      "Ġresulting": 3361,
      "ĠXe": 3362,
      "ĠXi": 3363,
      "Ġexpressible": 3364,
      "denstra": 3365,
      "Ġfinally": 3366,
      "Ġfinite": 3367,
      "Ġ1997": 3368,
      "ĠHeidel": 3369,
      "Ġassumed": 3370,
      "Ġselective": 3371,
      "plicity": 3372,
      "ava": 3373,
      "communication": 3374,
      "complete": 3375,
      "diagonal": 3376,
      "Ġmind": 3377,
      "Ġbiases": 3378,
      "plementation": 3379,
      "ĠAnalysis": 3380,
      "Ġdiscussions": 3381,
      "145": 3382,
      "Ġobtaining": 3383,
      "1806": 3384,
      "Ġamount": 3385,
      "science": 3386,
      "Ġopen": 3387,
      "Ġopens": 3388,
      "ĠDEv": 3389,
      "Ġreminis": 3390,
      "Ġcombining": 3391,
      "Ġcombined": 3392,
      "Ġuniformly": 3393,
      "Ġuniformity": 3394,
      "Ġfeedback": 3395,
      "Ġutil": 3396,
      "Ġschem": 3397,
      "Ġelimin": 3398,
      "Ġgoing": 3399,
      "Ġstudies": 3400,
      "Ġcapturing": 3401,
      "Ġcompletely": 3402,
      "Ġincreasing": 3403,
      "Ġmanner": 3404,
      "Ġreduced": 3405,
      "ĠParameter": 3406,
      "768": 3407,
      "Ġbasic": 3408,
      "Ġcompact": 3409,
      "Ġsparser": 3410,
      "nson": 3411,
      "Ġletters": 3412,
      "ĠDii": 3413,
      "Ġapplies": 3414,
      "Ġlooking": 3415,
      "Ġsimilarly": 3416,
      "152": 3417,
      "ĠAdam": 3418,
      ")+.": 3419,
      "Ġbuff": 3420,
      "Ġbuil": 3421,
      "Ġregime": 3422,
      "Ġsuppor": 3423,
      "ĠJournal": 3424,
      "Ġsimpler": 3425,
      "synaptic": 3426,
      "Ġoscillatory": 3427,
      "Ġlearned": 3428,
      "Ġdesigned": 3429,
      "Ġtechnical": 3430,
      "Ġinvolving": 3431,
      "Ġinvolves": 3432,
      "Ġreader": 3433,
      "Ġcharacter": 3434,
      "Ġcharacters": 3435,
      "Ġseems": 3436,
      "without": 3437,
      "Ġdense": 3438,
      "Ġeasily": 3439,
      "Ġrelatively": 3440,
      "Ġconfir": 3441,
      "Ġcontin": 3442,
      "Ġsubset": 3443,
      "ĠFinding": 3444,
      "ifying": 3445,
      "Ġadmitting": 3446,
      "Ġindependently": 3447,
      "480": 3448,
      "Ġactions": 3449,
      "Ġspatial": 3450,
      "Ġwalks": 3451,
      "Ġexecuted": 3452,
      "Ġadapt": 3453,
      "ĠLayerNorms": 3454,
      "Ġproducts": 3455,
      "grees": 3456,
      "Ġpassing": 3457,
      "Ġfewer": 3458,
      "Ġevaluation": 3459,
      "Ġcontains": 3460,
      "Ġsuccess": 3461,
      "Ġmonosemanticity": 3462,
      "bauer": 3463,
      "Ġmoving": 3464,
      "Ġguid": 3465,
      "Ġguide": 3466,
      "Ġstrictly": 3467,
      "ĠAlgorith": 3468,
      "Ġcompos": 3469,
      "ĠNature": 3470,
      "Ġpotentially": 3471,
      "Ġpreserved": 3472,
      "Ġbiologically": 3473,
      "Ġestimation": 3474,
      "Ġidentical": 3475,
      "Ġidentified": 3476,
      "Ġeventually": 3477,
      "ĠSociet": 3478,
      "Ġexactly": 3479,
      "Ġ32768": 3480,
      "Ġclustering": 3481,
      "Ġconcerns": 3482,
      "Ġmaintains": 3483,
      "Ġtechnique": 3484,
      "Ġtechniques": 3485,
      "Ġarbitrary": 3486,
      "Ġarbitrarily": 3487,
      "trained": 3488,
      "ĠSparse": 3489,
      "ĠResearch": 3490,
      "ĠImplementation": 3491,
      "Ġillustration": 3492,
      "Ġprepared": 3493,
      "Ġadjac": 3494,
      "Ġsignificant": 3495,
      "ĠZhou": 3496,
      "Ġscenarios": 3497,
      "ĠJohnson": 3498,
      "Lindenstra": 3499,
      "ollowing": 3500,
      "scale": 3501,
      "Ġopportun": 3502,
      "Ġomitted": 3503,
      "Ġcritical": 3504,
      "Ġlater": 3505,
      "ĠArtificial": 3506,
      "amping": 3507,
      "Ġextensions": 3508,
      "ĠChiang": 3509,
      "ĠModularity": 3510,
      "Ġdisplacement": 3511,
      "Ġalgorithm": 3512,
      "Ġhelp": 3513,
      "Ġbaselines": 3514,
      "Ġbuckets": 3515,
      "Ġorganized": 3516,
      "State": 3517,
      "conditional": 3518,
      "troduction": 3519,
      "informal": 3520,
      "Ġscience": 3521,
      "ĠBerlin": 3522,
      "ĠLiu": 3523,
      "Ġsuggests": 3524,
      "ĠUznanski": 3525,
      "Ġimpact": 3526,
      "ĠKaiser": 3527,
      "Ġleave": 3528,
      "Ġanalyze": 3529,
      "Ġmemorization": 3530,
      "Ġrelaxation": 3531,
      "Ġdistinguish": 3532,
      "decoder": 3533,
      "lshausen": 3534,
      "Ġtrue": 3535,
      "Ġcellular": 3536,
      "Ġflexi": 3537,
      "Ġfavor": 3538,
      "Ġmiddle": 3539,
      "rivastava": 3540,
      "Ġvocab": 3541,
      "ĠStochastic": 3542,
      "Ġdistortion": 3543,
      "aplacian": 3544,
      "illiams": 3545,
      "Ġrespectively": 3546,
      "Ġenvironment": 3547,
      "oshchilov": 3548,
      "ĠHeidelberg": 3549,
      "Ġreminiscent": 3550,
      "Lindenstrauss": 3551,
      ",(": 3552,
      ".-": 3553,
      "/.": 3554,
      "011": 3555,
      "210": 3556,
      "24576": 3557,
      "30": 3558,
      "46": 3559,
      "67": 3560,
      "77": 3561,
      "78": 3562,
      "706": 3563,
      "85": 3564,
      "956": 3565,
      "AM": 3566,
      "An": 3567,
      "As": 3568,
      "Ass": 3569,
      "Brain": 3570,
      "Base": 3571,
      "CLR": 3572,
      "Eq": 3573,
      "Expressiveness": 3574,
      "FO": 3575,
      "Graph": 3576,
      "ID": 3577,
      "Key": 3578,
      "Kumar": 3579,
      "Linear": 3580,
      "Loshchilov": 3581,
      "Mi": 3582,
      "ND": 3583,
      "Redu": 3584,
      "Radford": 3585,
      "Section": 3586,
      "Such": 3587,
      "Srivastava": 3588,
      "TunedEn": 3589,
      "Wh": 3590,
      "When": 3591,
      "Yang": 3592,
      "bd": 3593,
      "bo": 3594,
      "cel": 3595,
      "cri": 3596,
      "cid": 3597,
      "core": 3598,
      "cription": 3599,
      "cument": 3600,
      "da": 3601,
      "din": 3602,
      "des": 3603,
      "eas": 3604,
      "fter": 3605,
      "from": 3606,
      "function": 3607,
      "gl": 3608,
      "gra": 3609,
      "gel": 3610,
      "gam": 3611,
      "gress": 3612,
      "ho": 3613,
      "ht": 3614,
      "hor": 3615,
      "hing": 3616,
      "has": 3617,
      "hut": 3618,
      "hgh": 3619,
      "hidden": 3620,
      "hood": 3621,
      "ient": 3622,
      "iter": 3623,
      "ially": 3624,
      "itiv": 3625,
      "itively": 3626,
      "jic": 3627,
      "jection": 3628,
      "jective": 3629,
      "led": 3630,
      "lan": 3631,
      "liv": 3632,
      "lance": 3633,
      "mon": 3634,
      "mis": 3635,
      "mys": 3636,
      "mund": 3637,
      "mble": 3638,
      "na": 3639,
      "non": 3640,
      "nom": 3641,
      "nce": 3642,
      "num": 3643,
      "opo": 3644,
      "otes": 3645,
      "pd": 3646,
      "ply": 3647,
      "pts": 3648,
      "pred": 3649,
      "rit": 3650,
      "rings": 3651,
      "ruth": 3652,
      "son": 3653,
      "sen": 3654,
      "sted": 3655,
      "second": 3656,
      "shar": 3657,
      "tti": 3658,
      "typ": 3659,
      "urom": 3660,
      "uci": 3661,
      "val": 3662,
      "vector": 3663,
      "vely": 3664,
      "wal": 3665,
      "ways": 3666,
      "ware": 3667,
      "wani": 3668,
      "words": 3669,
      "xl": 3670,
      "zin": 3671,
      "zing": 3672,
      "zadeh": 3673,
      "~(": 3674,
      "Ġ_": 3675,
      "Ġnd": 3676,
      "Ġ).": 3677,
      "Ġener": 3678,
      "Ġens": 3679,
      "Ġrank": 3680,
      "Ġtur": 3681,
      "Ġtest": 3682,
      "Ġaxiomatic": 3683,
      "ins": 3684,
      "input": 3685,
      "indu": 3686,
      "inde": 3687,
      "inberg": 3688,
      "ons": 3689,
      "head": 3690,
      "heless": 3691,
      "rel": 3692,
      "rer": 3693,
      "rete": 3694,
      "reiter": 3695,
      "tit": 3696,
      "tiation": 3697,
      "Ġsur": 3698,
      "Ġstem": 3699,
      "Ġsay": 3700,
      "Ġsqu": 3701,
      "Ġsite": 3702,
      "Ġske": 3703,
      "Ġserve": 3704,
      "Ġown": 3705,
      "Ġorig": 3706,
      "tered": 3707,
      "orts": 3708,
      "orth": 3709,
      "oroman": 3710,
      "ena": 3711,
      "entic": 3712,
      "encod": 3713,
      "ensitive": 3714,
      "erate": 3715,
      "erri": 3716,
      "rap": 3717,
      "Ġcurren": 3718,
      "Ġcurrency": 3719,
      "Ġchemical": 3720,
      "Ġclipping": 3721,
      "Ġinsi": 3722,
      "Ġintention": 3723,
      "Ġinste": 3724,
      "alse": 3725,
      "Ġpure": 3726,
      "Ġpion": 3727,
      "Ġfar": 3728,
      "Ġful": 3729,
      "Ġfam": 3730,
      "Ġfree": 3731,
      "Ġfall": 3732,
      "Ġfull": 3733,
      "Ġmach": 3734,
      "Ġmention": 3735,
      "Ġdomin": 3736,
      "Ġdue": 3737,
      "Ġdrop": 3738,
      "Ġdamping": 3739,
      "aring": 3740,
      "arri": 3741,
      "arge": 3742,
      "arted": 3743,
      "article": 3744,
      "arpath": 3745,
      "aropo": 3746,
      "itrop": 3747,
      "Ġbo": 3748,
      "Ġbot": 3749,
      "Ġbillions": 3750,
      "Ġbrings": 3751,
      "ict": 3752,
      "icz": 3753,
      "Ġled": 3754,
      "Ġland": 3755,
      "Ġlingu": 3756,
      "Ġej": 3757,
      "Ġ(,": 3758,
      "ants": 3759,
      "anced": 3760,
      "anilla": 3761,
      "ela": 3762,
      "elong": 3763,
      "eley": 3764,
      "asc": 3765,
      "asz": 3766,
      "aswani": 3767,
      "Ġrew": 3768,
      "Ġresid": 3769,
      "Ġreach": 3770,
      "Ġretur": 3771,
      "levant": 3772,
      "omata": 3773,
      "omela": 3774,
      "Ġhis": 3775,
      "Ġhop": 3776,
      "Ġhub": 3777,
      "ĠTHE": 3778,
      "chron": 3779,
      "lynom": 3780,
      "ĠBa": 3781,
      "ĠBra": 3782,
      "ĠBase": 3783,
      "Ġgating": 3784,
      "Ġground": 3785,
      "etheless": 3786,
      "Ġstre": 3787,
      "Ġstored": 3788,
      "Ġstarted": 3789,
      "rest": 3790,
      "resee": 3791,
      "Ġconve": 3792,
      "Ġconference": 3793,
      "Ġcontex": 3794,
      "ury": 3795,
      "Ġisol": 3796,
      "tery": 3797,
      "tering": 3798,
      "Ġ26": 3799,
      "Ġ213": 3800,
      "Ġvk": 3801,
      "Ġvs": 3802,
      "Ġvoting": 3803,
      "Ġvarying": 3804,
      "Ġvanilla": 3805,
      "ctural": 3806,
      "uli": 3807,
      "ulos": 3808,
      "Ġasse": 3809,
      "amb": 3810,
      "ame": 3811,
      "Ġproposed": 3812,
      "Ġprods": 3813,
      "Ġprogress": 3814,
      "Ġprojection": 3815,
      "ormally": 3816,
      "ĠGiven": 3817,
      "ĠSch": 3818,
      "ĠSus": 3819,
      "ĠSig": 3820,
      "ĠSynap": 3821,
      "ĠSha": 3822,
      "ĠShen": 3823,
      "ĠSuts": 3824,
      "ĠScaling": 3825,
      "Ġexplic": 3826,
      "Ġextent": 3827,
      "Ġexcept": 3828,
      "igible": 3829,
      "ĠDen": 3830,
      "ĠDie": 3831,
      "ĠDynamics": 3832,
      "tices": 3833,
      "ĠRus": 3834,
      "forms": 3835,
      "ĠEm": 3836,
      "ĠLong": 3837,
      "ĠLie": 3838,
      "ĠLaplacian": 3839,
      "param": 3840,
      "Ġsystematic": 3841,
      "ĠCj": 3842,
      "ĠCor": 3843,
      "ĠCPU": 3844,
      "ĠMir": 3845,
      "ĠMore": 3846,
      "ĠMacro": 3847,
      "ĠMitrop": 3848,
      "Ġwhy": 3849,
      "ĠICLR": 3850,
      "stabil": 3851,
      "Ġparam": 3852,
      "Ġparame": 3853,
      "Ġparag": 3854,
      "ĠPA": 3855,
      "ĠPM": 3856,
      "ĠPl": 3857,
      "ĠPar": 3858,
      "ĠPeng": 3859,
      "ĠPop": 3860,
      "ĠThere": 3861,
      "irma": 3862,
      "Ġkind": 3863,
      "putation": 3864,
      "fferen": 3865,
      "oty": 3866,
      "perip": 3867,
      "olsky": 3868,
      "ĠFort": 3869,
      "ĠFormally": 3870,
      "Ġusual": 3871,
      "Ġapplying": 3872,
      "ĠHil": 3873,
      "ĠHypothesis": 3874,
      "ĠHatch": 3875,
      "Ġalike": 3876,
      "Ġalways": 3877,
      "Ġspan": 3878,
      "Ġspect": 3879,
      "iza": 3880,
      "Ġlocated": 3881,
      "land": 3882,
      "Ġaccu": 3883,
      "verall": 3884,
      "Ġite": 3885,
      "ĠNorm": 3886,
      "Ġdef": 3887,
      "Ġdeterm": 3888,
      "Ġdegrees": 3889,
      "ĠInc": 3890,
      "ĠIntroduction": 3891,
      "play": 3892,
      "ploy": 3893,
      "hery": 3894,
      "reduci": 3895,
      "Ġforesee": 3896,
      "Ġpost": 3897,
      "Ġpolynom": 3898,
      "sident": 3899,
      "Ġscaled": 3900,
      "tribution": 3901,
      "plex": 3902,
      "asoning": 3903,
      "this": 3904,
      "though": 3905,
      "Ġja": 3906,
      "Ġjus": 3907,
      "Ġjoint": 3908,
      "ado": 3909,
      "103": 3910,
      "107": 3911,
      "1073": 3912,
      "Ġtrainability": 3913,
      "cially": 3914,
      "acin": 3915,
      "ralized": 3916,
      "Ġinterpre": 3917,
      "Ġinternal": 3918,
      "Ġshif": 3919,
      "Ġshape": 3920,
      "oregressive": 3921,
      "rical": 3922,
      "ĠTransformerXL": 3923,
      "Ġrepresentative": 3924,
      "Ġfunctional": 3925,
      "ification": 3926,
      "ĠJe": 3927,
      "ĠJuly": 3928,
      "kever": 3929,
      "gest": 3930,
      "Ġimmediate": 3931,
      "Ġimposed": 3932,
      "bert": 3933,
      "echan": 3934,
      "Ġsamples": 3935,
      "Ġraw": 3936,
      "Ġrare": 3937,
      "Ġunion": 3938,
      "Ġunknown": 3939,
      "Ġunconditional": 3940,
      "ofbauer": 3941,
      "Ġsemantic": 3942,
      "Ġcoar": 3943,
      "Ġcost": 3944,
      "Ġcoherent": 3945,
      "Ġpreced": 3946,
      "Ġprefer": 3947,
      "Ġprecl": 3948,
      "Ġpretrained": 3949,
      "arial": 3950,
      "arily": 3951,
      "poch": 3952,
      "points": 3953,
      "Ġ30": 3954,
      "Ġeffort": 3955,
      "Ġgeneralize": 3956,
      "Ġgeneralizes": 3957,
      "Ġsimulate": 3958,
      "Ġsimplicity": 3959,
      "never": 3960,
      "neighbor": 3961,
      "Ġadded": 3962,
      "Ġdoor": 3963,
      "Ġdoing": 3964,
      "vention": 3965,
      "Ġgiving": 3966,
      "Ġhence": 3967,
      "antum": 3968,
      "Ġapproximated": 3969,
      "Ġapproximator": 3970,
      "Ġnumbers": 3971,
      "Ġoperating": 3972,
      "Ġtranscri": 3973,
      "Ġnotice": 3974,
      "abilistic": 3975,
      "Ġyl": 3976,
      "Ġyou": 3977,
      "Ġotherwise": 3978,
      "Ġeleg": 3979,
      "005": 3980,
      "Ġdiscover": 3981,
      "Ġque": 3982,
      "Ġquery": 3983,
      "Ġquick": 3984,
      "Ġquantum": 3985,
      "Ġabst": 3986,
      "Ġrelating": 3987,
      "Ġvertices": 3988,
      "Ġsubgraph": 3989,
      "Inference": 3990,
      "Ġdeclaration": 3991,
      "Ġlargest": 3992,
      "ailable": 3993,
      "grams": 3994,
      "ĠProject": 3995,
      "Ġwhereas": 3996,
      "parallel": 3997,
      "weight": 3998,
      "ogn": 3999,
      "Ġ655": 4000,
      "thetic": 4001,
      "Ġobjective": 4002,
      "Ġworking": 4003,
      "valued": 4004,
      "Ġfinal": 4005,
      "Ġ1998": 4006,
      "ĠHere": 4007,
      "Ġunderlying": 4008,
      "Ġthank": 4009,
      "Ġclasses": 4010,
      "Ġqk": 4011,
      "Ġqz": 4012,
      "ĠDefine": 4013,
      "Ġassumes": 4014,
      "learning": 4015,
      "plications": 4016,
      "plicative": 4017,
      "ĠApplied": 4018,
      "Ġexperimental": 4019,
      "Ġintroduction": 4020,
      "Ġminutes": 4021,
      "ĠSub": 4022,
      "ĠSuch": 4023,
      "ĠSuppose": 4024,
      "ĠNeuman": 4025,
      "opt": 4026,
      "Ġfactor": 4027,
      "ĠLinearAttention": 4028,
      "Ġconclusions": 4029,
      "Ġprogrammable": 4030,
      "ĠFigure": 4031,
      "12706": 4032,
      "DEz": 4033,
      "Ġencode": 4034,
      "Ġencoding": 4035,
      "186": 4036,
      "ians": 4037,
      "Ġamplit": 4038,
      "Ġacts": 4039,
      "Ġacting": 4040,
      "linearity": 4041,
      "ĠAspn": 4042,
      "ikol": 4043,
      "ikip": 4044,
      "Ġmultiplicative": 4045,
      "Ġbounds": 4046,
      "Ġremem": 4047,
      "Ġcorrection": 4048,
      "empe": 4049,
      "Ġtypical": 4050,
      "Ġhighl": 4051,
      "Ġgoes": 4052,
      "Ġgood": 4053,
      "Ġappearing": 4054,
      "Ġrigor": 4055,
      "Ġexpectation": 4056,
      "Ġincrement": 4057,
      "Ġincrease": 4058,
      "zeer": 4059,
      "Ġreduce": 4060,
      "ĠCho": 4061,
      "ĠChris": 4062,
      "Ġshortc": 4063,
      "Ġequivalently": 4064,
      "Ġpredict": 4065,
      "Ġpredictable": 4066,
      "ochreiter": 4067,
      "Ġsolution": 4068,
      "ĠParallel": 4069,
      "ĠPapers": 4070,
      "EnEs": 4071,
      "scillatory": 4072,
      "Ġappropriately": 4073,
      "Ġafirm": 4074,
      "Ġafirma": 4075,
      "Ġautomata": 4076,
      "Ġautoregressive": 4077,
      "Ġrealized": 4078,
      "Ġexplore": 4079,
      "ĠDirect": 4080,
      "empl": 4081,
      "Ġpulses": 4082,
      "Ġbelieve": 4083,
      "Ġevolutionary": 4084,
      ")+,": 4085,
      "2020": 4086,
      "2022": 4087,
      "models": 4088,
      "ĠLee": 4089,
      "ĠLeCun": 4090,
      "Ġsuppose": 4091,
      "tocols": 4092,
      "ĠJojic": 4093,
      "Ġsimplest": 4094,
      "Ġtreat": 4095,
      "Ġagents": 4096,
      "Ġagentic": 4097,
      "inking": 4098,
      "atharopo": 4099,
      "Ġhandle": 4100,
      "Ġdesigning": 4101,
      "modularity": 4102,
      "Ġclaire": 4103,
      "Ġinvolved": 4104,
      "Ġready": 4105,
      "Ġconditional": 4106,
      "Ġ2008": 4107,
      "Ġruns": 4108,
      "Ġrunning": 4109,
      "Ġidx": 4110,
      "Ġrelative": 4111,
      "ominant": 4112,
      "presentation": 4113,
      "Ġsubsets": 4114,
      "Ġexplaining": 4115,
      "Ġconstructive": 4116,
      "Ġexplanations": 4117,
      "Ġphysical": 4118,
      "Ġreliance": 4119,
      "Ġreferred": 4120,
      "ĠSciences": 4121,
      "Ġdepending": 4122,
      "Ġparticularly": 4123,
      "Ġintuitively": 4124,
      "Ġcaptured": 4125,
      "ĠfreqG": 4126,
      "atistical": 4127,
      "Ġsynthetic": 4128,
      "Ġserves": 4129,
      "Ġserved": 4130,
      "Ġpasses": 4131,
      "Ġpassed": 4132,
      "Ġmapping": 4133,
      "Ġmajor": 4134,
      "Ġmessages": 4135,
      "Ġevaluate": 4136,
      "Ġevaluated": 4137,
      "Ġcontained": 4138,
      "Ġseparate": 4139,
      "Ġprecise": 4140,
      "step": 4141,
      "Ġpublished": 4142,
      "Ġrepetition": 4143,
      "Ġcomposition": 4144,
      "ĠNatale": 4145,
      "Ġpotentiation": 4146,
      "Ġremaining": 4147,
      "Ġbecoming": 4148,
      "Ġcloser": 4149,
      "Ġprimary": 4150,
      "Ġprimitiv": 4151,
      "Ġevents": 4152,
      "chmark": 4153,
      "ĠActivation": 4154,
      "Ġcompressed": 4155,
      "Ġinterpretable": 4156,
      "Ġrequirement": 4157,
      "Ġstrongly": 4158,
      "Here": 4159,
      "eval": 4160,
      "harwal": 4161,
      "print": 4162,
      "eleg": 4163,
      "ĠSpark": 4164,
      "Ġarrive": 4165,
      "Ġdealing": 4166,
      "Ġrapidly": 4167,
      "Ġprepare": 4168,
      "ĠZhang": 4169,
      "Ġconcatenation": 4170,
      "Ġconcatenating": 4171,
      "Ġscenario": 4172,
      "Ġrijkqi": 4173,
      "Ġindexes": 4174,
      "ĠJohn": 4175,
      "Ġintuitions": 4176,
      "STM": 4177,
      "approxim": 4178,
      "bounded": 4179,
      "foundations": 4180,
      "foundational": 4181,
      "minutes": 4182,
      "normalization": 4183,
      "normalized": 4184,
      "pnas": 4185,
      "pathway": 4186,
      "Ġ978145": 4187,
      "Ġtuning": 4188,
      "Ġavoid": 4189,
      "Ġavailable": 4190,
      "Ġname": 4191,
      "roximate": 4192,
      "Ġbenef": 4193,
      "Ġbenchmark": 4194,
      "Ġlifelong": 4195,
      "Ġstructures": 4196,
      "Ġconvenient": 4197,
      "Ġattempts": 4198,
      "Ġ1000": 4199,
      "ĠMcC": 4200,
      "Ġmatching": 4201,
      "localized": 4202,
      "Ġcounting": 4203,
      "Ġcommunicate": 4204,
      "Ġcommunicating": 4205,
      "Ġ1990": 4206,
      "Ġfeature": 4207,
      "Ġfeatures": 4208,
      "ĠNeurons": 4209,
      "Ġprincipled": 4210,
      "Ġregardless": 4211,
      "Ġaggregates": 4212,
      "Sparse": 4213,
      "aziza": 4214,
      "equations": 4215,
      "Ġirreduci": 4216,
      "Ġinitial": 4217,
      "Ġinfinite": 4218,
      "Ġportion": 4219,
      "Ġnominat": 4220,
      "Ġevidence": 4221,
      "Ġretrieval": 4222,
      "ĠTraining": 4223,
      "Ġglobal": 4224,
      "Ġaspects": 4225,
      "Ġpropagate": 4226,
      "ĠMachinery": 4227,
      "ĠMathematical": 4228,
      "ĠPresident": 4229,
      "Ġdistinct": 4230,
      "Ġcoupled": 4231,
      "Ġnumerical": 4232,
      "Ġadvantage": 4233,
      "Ġemerges": 4234,
      "Ġmanipulate": 4235,
      "Ġfrequency": 4236,
      "Ġphrased": 4237,
      "Ġpublicat": 4238,
      "Ġimprovement": 4239,
      "Ġsoftmax": 4240,
      "Ġfundamental": 4241,
      "Finally": 4242,
      "Unknown": 4243,
      "Ġtext": 4244,
      "Ġoccur": 4245,
      "Ġinspired": 4246,
      "Ġpasat": 4247,
      "Ġmixes": 4248,
      "ittington": 4249,
      "rolling": 4250,
      "Ġlikely": 4251,
      "Ġlabeling": 4252,
      "Ġreinforcement": 4253,
      "changing": 4254,
      "Ġconsequence": 4255,
      "Ġpromotes": 4256,
      "ĠGenerally": 4257,
      "ĠSabharwal": 4258,
      "Ġexpand": 4259,
      "gebraic": 4260,
      "ĠLocality": 4261,
      "ĠHuang": 4262,
      "Ġaccessed": 4263,
      "versarial": 4264,
      "Ġdeferred": 4265,
      "ĠInformation": 4266,
      "Ġunsupervised": 4267,
      "Ġengineering": 4268,
      "ĠProcessing": 4269,
      "Ġutility": 4270,
      "Ġscheme": 4271,
      "ĠAdamW": 4272,
      "Ġbuffer": 4273,
      "Ġbuilding": 4274,
      "Ġcharacteristics": 4275,
      "Ġadaptation": 4276,
      "Ġguiding": 4277,
      "ĠAlgorithms": 4278,
      "Ġcomposability": 4279,
      "BaseEnEs": 4280,
      "description": 4281,
      "gligible": 4282,
      "hoj": 4283,
      "html": 4284,
      "hghani": 4285,
      "sharp": 4286,
      "typically": 4287,
      "Ġenergy": 4288,
      "Ġensuring": 4289,
      "index": 4290,
      "Ġsites": 4291,
      "Ġskew": 4292,
      "Ġorigin": 4293,
      "oromanski": 4294,
      "errill": 4295,
      "Ġcurrencies": 4296,
      "Ġinsight": 4297,
      "Ġinstead": 4298,
      "Ġpurely": 4299,
      "Ġpione": 4300,
      "Ġfully": 4301,
      "arpathy": 4302,
      "Ġbott": 4303,
      "Ġlingua": 4304,
      "Ġresidual": 4305,
      "Ġcontexts": 4306,
      "Ġassemb": 4307,
      "ĠSigmund": 4308,
      "ĠShazeer": 4309,
      "ĠSutskever": 4310,
      "ĠMitropolsky": 4311,
      "Ġparameterized": 4312,
      "Ġparagraph": 4313,
      "ĠPopulation": 4314,
      "periphery": 4315,
      "ĠForty": 4316,
      "ĠHilbert": 4317,
      "ĠHatchling": 4318,
      "Ġinterpreted": 4319,
      "Ġpreceding": 4320,
      "Ġtranscripts": 4321,
      "Ġ65536": 4322,
      "ĠNeumann": 4323,
      "127063": 4324,
      "ĠAspnes": 4325,
      "ikipedia": 4326,
      "Ġafirmacin": 4327,
      "Ġafirmao": 4328,
      "atharopoulos": 4329,
      "Ġprimitives": 4330,
      "Ġrijkqiqj": 4331,
      "Ġ97814503": 4332,
      "\":": 4333,
      "\"}": 4334,
      "\").": 4335,
      "'.": 4336,
      "').": 4337,
      ")(": 4338,
      ");": 4339,
      ",+": 4340,
      "-(": 4341,
      "-,": 4342,
      ".).": 4343,
      "/(": 4344,
      "28": 4345,
      "220": 4346,
      "31": 4347,
      "318": 4348,
      "436": 4349,
      "51": 4350,
      "52": 4351,
      "517": 4352,
      "507": 4353,
      "540": 4354,
      "61": 4355,
      "63": 4356,
      "64": 4357,
      "65": 4358,
      "644": 4359,
      "698": 4360,
      "70": 4361,
      "74": 4362,
      "744": 4363,
      "793": 4364,
      "89": 4365,
      "897": 4366,
      "94": 4367,
      "936": 4368,
      "9152": 4369,
      ">.<": 4370,
      "AC": 4371,
      "AG": 4372,
      "AI": 4373,
      "AL": 4374,
      "AV": 4375,
      "Ac": 4376,
      "All": 4377,
      "BE": 4378,
      "BM": 4379,
      "Bri": 4380,
      "CO": 4381,
      "Com": 4382,
      "DD": 4383,
      "Di": 4384,
      "Dy": 4385,
      "Die": 4386,
      "Ed": 4387,
      "Ee": 4388,
      "Eic": 4389,
      "Equation": 4390,
      "EST": 4391,
      "French": 4392,
      "Following": 4393,
      "False": 4394,
      "Ge": 4395,
      "Go": 4396,
      "Gie": 4397,
      "Hi": 4398,
      "However": 4399,
      "Hofbauer": 4400,
      "Haziza": 4401,
      "IN": 4402,
      "Ii": 4403,
      "Ij": 4404,
      "Ind": 4405,
      "ING": 4406,
      "IFO": 4407,
      "KV": 4408,
      "Kish": 4409,
      "LO": 4410,
      "Le": 4411,
      "Let": 4412,
      "Language": 4413,
      "LSH": 4414,
      "Local": 4415,
      "Man": 4416,
      "Macro": 4417,
      "Merrill": 4418,
      "NE": 4419,
      "OR": 4420,
      "One": 4421,
      "Olshausen": 4422,
      "Overall": 4423,
      "Pr": 4424,
      "Portuguese": 4425,
      "Posi": 4426,
      "Phys": 4427,
      "Peleg": 4428,
      "RE": 4429,
      "RM": 4430,
      "Rd": 4431,
      "SS": 4432,
      "Sp": 4433,
      "Second": 4434,
      "Since": 4435,
      "Sherry": 4436,
      "To": 4437,
      "Time": 4438,
      "Translation": 4439,
      "With": 4440,
      "Williams": 4441,
      "Zh": 4442,
      "].": 4443,
      "aa": 4444,
      "au": 4445,
      "ara": 4446,
      "ared": 4447,
      "aee": 4448,
      "arent": 4449,
      "aev": 4450,
      "ativity": 4451,
      "arest": 4452,
      "be": 4453,
      "bil": 4454,
      "bag": 4455,
      "cin": 4456,
      "che": 4457,
      "can": 4458,
      "cil": 4459,
      "cher": 4460,
      "clo": 4461,
      "ccess": 4462,
      "cou": 4463,
      "currency": 4464,
      "dk": 4465,
      "dx": 4466,
      "dor": 4467,
      "dan": 4468,
      "date": 4469,
      "dom": 4470,
      "dri": 4471,
      "dot": 4472,
      "dac": 4473,
      "dell": 4474,
      "data": 4475,
      "divid": 4476,
      "distributed": 4477,
      "ex": 4478,
      "ez": 4479,
      "eous": 4480,
      "expres": 4481,
      "fre": 4482,
      "fast": 4483,
      "flow": 4484,
      "flu": 4485,
      "fire": 4486,
      "gate": 4487,
      "gith": 4488,
      "grain": 4489,
      "gence": 4490,
      "gies": 4491,
      "glu": 4492,
      "gery": 4493,
      "gradi": 4494,
      "hk": 4495,
      "ham": 4496,
      "hari": 4497,
      "hand": 4498,
      "hop": 4499,
      "hart": 4500,
      "hors": 4501,
      "hances": 4502,
      "haps": 4503,
      "hsen": 4504,
      "ii": 4505,
      "iro": 4506,
      "iod": 4507,
      "ixt": 4508,
      "irect": 4509,
      "iak": 4510,
      "ko": 4511,
      "kore": 4512,
      "kernel": 4513,
      "kowski": 4514,
      "keley": 4515,
      "len": 4516,
      "lang": 4517,
      "lond": 4518,
      "long": 4519,
      "lass": 4520,
      "lss": 4521,
      "lming": 4522,
      "more": 4523,
      "machine": 4524,
      "mark": 4525,
      "nas": 4526,
      "nec": 4527,
      "national": 4528,
      "nov": 4529,
      "oT": 4530,
      "ole": 4531,
      "oice": 4532,
      "pu": 4533,
      "pur": 4534,
      "pul": 4535,
      "pil": 4536,
      "power": 4537,
      "pii": 4538,
      "rner": 4539,
      "sw": 4540,
      "ser": 4541,
      "sus": 4542,
      "sity": 4543,
      "section": 4544,
      "series": 4545,
      "schil": 4546,
      "split": 4547,
      "selves": 4548,
      "sherry": 4549,
      "tn": 4550,
      "tra": 4551,
      "ture": 4552,
      "transformer": 4553,
      "tance": 4554,
      "ute": 4555,
      "uation": 4556,
      "upp": 4557,
      "ups": 4558,
      "uck": 4559,
      "uration": 4560,
      "vt": 4561,
      "vec": 4562,
      "valid": 4563,
      "vonen": 4564,
      "vanced": 4565,
      "whe": 4566,
      "wing": 4567,
      "welf": 4568,
      "ye": 4569,
      "yl": 4570,
      "ymb": 4571,
      "zow": 4572,
      "zkowski": 4573,
      "Ġ&": 4574,
      "Ġ*": 4575,
      "Ġ;": 4576,
      "Ġ~": 4577,
      "Ġ97": 4578,
      "Ġta": 4579,
      "Ġtf": 4580,
      "Ġtra": 4581,
      "Ġturing": 4582,
      "Ġtak": 4583,
      "Ġtakes": 4584,
      "Ġtruncated": 4585,
      "Ġtrig": 4586,
      "Ġtruth": 4587,
      "Ġaim": 4588,
      "Ġaver": 4589,
      "Ġabs": 4590,
      "Ġaxiom": 4591,
      "ini": 4592,
      "inth": 4593,
      "inference": 4594,
      "inful": 4595,
      "inology": 4596,
      "ont": 4597,
      "onic": 4598,
      "onormal": 4599,
      "onents": 4600,
      "ontal": 4601,
      "hered": 4602,
      "hetical": 4603,
      "heads": 4604,
      "repres": 4605,
      "retur": 4606,
      "representation": 4607,
      "tiated": 4608,
      "titions": 4609,
      "tiano": 4610,
      "Ġsent": 4611,
      "Ġster": 4612,
      "Ġside": 4613,
      "Ġseries": 4614,
      "Ġski": 4615,
      "Ġodor": 4616,
      "tel": 4617,
      "teent": 4618,
      "telligence": 4619,
      "Ġthems": 4620,
      "ora": 4621,
      "orph": 4622,
      "enter": 4623,
      "enced": 4624,
      "ential": 4625,
      "encies": 4626,
      "ert": 4627,
      "erived": 4628,
      "rao": 4629,
      "ray": 4630,
      "raign": 4631,
      "raves": 4632,
      "rauth": 4633,
      "raight": 4634,
      "rature": 4635,
      "Ġcent": 4636,
      "Ġcause": 4637,
      "Ġcenter": 4638,
      "Ġinst": 4639,
      "Ġinhib": 4640,
      "Ġinves": 4641,
      "ala": 4642,
      "ales": 4643,
      "alit": 4644,
      "aled": 4645,
      "alli": 4646,
      "alak": 4647,
      "alev": 4648,
      "alfunction": 4649,
      "algebraic": 4650,
      "Ġwte": 4651,
      "Ġwid": 4652,
      "Ġwide": 4653,
      "Ġworld": 4654,
      "esirable": 4655,
      "Ġpe": 4656,
      "Ġphen": 4657,
      "Ġpick": 4658,
      "Ġpiec": 4659,
      "Ġpnas": 4660,
      "Ġfd": 4661,
      "Ġfy": 4662,
      "Ġfresh": 4663,
      "Ġflu": 4664,
      "Ġfiring": 4665,
      "isk": 4666,
      "ising": 4667,
      "nderst": 4668,
      "Ġmer": 4669,
      "Ġmate": 4670,
      "Ġmom": 4671,
      "Ġmold": 4672,
      "Ġmove": 4673,
      "Ġmixed": 4674,
      "Ġmalfunction": 4675,
      "Ġdra": 4676,
      "Ġdel": 4677,
      "Ġdat": 4678,
      "Ġdim": 4679,
      "Ġderived": 4680,
      "Ġ.,": 4681,
      "Ġnor": 4682,
      "Ġnav": 4683,
      "Ġninth": 4684,
      "arren": 4685,
      "arma": 4686,
      "architecture": 4687,
      "arrer": 4688,
      "itt": 4689,
      "itts": 4690,
      "itaev": 4691,
      "roach": 4692,
      "robin": 4693,
      "eds": 4694,
      "edy": 4695,
      "edges": 4696,
      "Ġbet": 4697,
      "Ġbri": 4698,
      "Ġbig": 4699,
      "Ġbits": 4700,
      "Ġbring": 4701,
      "Ġblog": 4702,
      "Ġbarri": 4703,
      "ices": 4704,
      "Ġla": 4705,
      "Ġlat": 4706,
      "Ġlite": 4707,
      "Ġlens": 4708,
      "Ġlack": 4709,
      "Ġlines": 4710,
      "Ġei": 4711,
      "Ġease": 4712,
      "Ġepoch": 4713,
      "Ġ()": 4714,
      "Ġ(`": 4715,
      "Ġ(),": 4716,
      "anization": 4717,
      "antially": 4718,
      "elhart": 4719,
      "asy": 4720,
      "asis": 4721,
      "asting": 4722,
      "asso": 4723,
      "asets": 4724,
      "assif": 4725,
      "asien": 4726,
      "asible": 4727,
      "ashing": 4728,
      "econom": 4729,
      "ectivity": 4730,
      "ecche": 4731,
      "ato": 4732,
      "atural": 4733,
      "atonic": 4734,
      "oders": 4735,
      "Ġrece": 4736,
      "Ġrepro": 4737,
      "Ġrecon": 4738,
      "Ġrefine": 4739,
      "Ġreaction": 4740,
      "Ġrelevant": 4741,
      "Ġredac": 4742,
      "lements": 4743,
      "left": 4744,
      "imes": 4745,
      "imil": 4746,
      "ater": 4747,
      "entangling": 4748,
      "omance": 4749,
      "omena": 4750,
      "sill": 4751,
      "sible": 4752,
      "sively": 4753,
      "Ġhal": 4754,
      "Ġhypot": 4755,
      "Ġhipp": 4756,
      "Ġhypothesis": 4757,
      "Ġhistor": 4758,
      "ĠTra": 4759,
      "ĠTow": 4760,
      "ĠTol": 4761,
      "ĠTake": 4762,
      "ĠTechn": 4763,
      "ĠTranslation": 4764,
      "ĠTwelf": 4765,
      "ching": 4766,
      "chain": 4767,
      "chli": 4768,
      "ĠBD": 4769,
      "ĠBud": 4770,
      "ĠBlock": 4771,
      "ĠBoth": 4772,
      "ĠBeh": 4773,
      "ĠBah": 4774,
      "Ġgre": 4775,
      "Ġgates": 4776,
      "Ġgrid": 4777,
      "Ġgaussian": 4778,
      "Ġgive": 4779,
      "Ġgone": 4780,
      "Ġglance": 4781,
      "eting": 4782,
      "etch": 4783,
      "owiak": 4784,
      "Ġstage": 4785,
      "Ġstable": 4786,
      "Ġstability": 4787,
      "Ġstrate": 4788,
      "Ġstoring": 4789,
      "Ġstraight": 4790,
      "ria": 4791,
      "ried": 4792,
      "right": 4793,
      "Ġcons": 4794,
      "ithme": 4795,
      "Ġmodul": 4796,
      "Ġmoderate": 4797,
      "utable": 4798,
      "terra": 4799,
      "terpret": 4800,
      "Ġ22": 4801,
      "Ġ27": 4802,
      "Ġ29": 4803,
      "Ġ24576": 4804,
      "lla": 4805,
      "Ġvon": 4806,
      "Ġvia": 4807,
      "ĠAK": 4808,
      "ĠAust": 4809,
      "ĠAND": 4810,
      "ĠAfter": 4811,
      "ulus": 4812,
      "ulations": 4813,
      "ulates": 4814,
      "Ġask": 4815,
      "Ġassig": 4816,
      "ames": 4817,
      "amil": 4818,
      "amba": 4819,
      "yson": 4820,
      "Ġproved": 4821,
      "Ġprogres": 4822,
      "ĠGold": 4823,
      "ĠGasien": 4824,
      "ĠBDHGPU": 4825,
      "ĠSm": 4826,
      "ĠSar": 4827,
      "ĠSan": 4828,
      "ĠSap": 4829,
      "ĠSep": 4830,
      "ĠSecond": 4831,
      "ĠSince": 4832,
      "ĠSampled": 4833,
      "ĠSensitive": 4834,
      "ĠSalak": 4835,
      "unks": 4836,
      "Ġattrib": 4837,
      "Ġattn": 4838,
      "Ġexper": 4839,
      "Ġbearing": 4840,
      "igate": 4841,
      "ĠDis": 4842,
      "ĠDab": 4843,
      "ĠDav": 4844,
      "ĠDude": 4845,
      "ĠDict": 4846,
      "ĠDoty": 4847,
      "ĠDAG": 4848,
      "ĠDesirable": 4849,
      "ĠDyson": 4850,
      "Ġ11": 4851,
      "ticity": 4852,
      "ticians": 4853,
      "abr": 4854,
      "ablished": 4855,
      "ynman": 4856,
      "ĠRec": 4857,
      "ĠRss": 4858,
      "ĠRoth": 4859,
      "ĠRupp": 4860,
      "ĠRomance": 4861,
      "Ġneuro": 4862,
      "Ġneighb": 4863,
      "Ġneighbor": 4864,
      "formance": 4865,
      "Ġcome": 4866,
      "Ġcomes": 4867,
      "Ġcomplic": 4868,
      "Ġcomments": 4869,
      "Ġcomparing": 4870,
      "gered": 4871,
      "sewhere": 4872,
      "semin": 4873,
      "ĠEl": 4874,
      "ĠEs": 4875,
      "ĠEz": 4876,
      "ĠEff": 4877,
      "ĠEven": 4878,
      "ĠEvol": 4879,
      "ĠEasy": 4880,
      "ĠLN": 4881,
      "ĠLu": 4882,
      "ĠLat": 4883,
      "ĠLov": 4884,
      "ĠLOC": 4885,
      "ĠLarge": 4886,
      "ĠLSTM": 4887,
      "pair": 4888,
      "paced": 4889,
      "aying": 4890,
      "Ġ2007": 4891,
      "Ġ2003": 4892,
      "tence": 4893,
      "tentive": 4894,
      "earing": 4895,
      "Ġstated": 4896,
      "Ġstates": 4897,
      "ĠCO": 4898,
      "ĠCe": 4899,
      "ĠCl": 4900,
      "ĠColl": 4901,
      "ĠCair": 4902,
      "ĠCzy": 4903,
      "press": 4904,
      "ĠMI": 4905,
      "ĠMe": 4906,
      "ĠMin": 4907,
      "ĠMap": 4908,
      "ĠMess": 4909,
      "ĠMass": 4910,
      "ĠMerg": 4911,
      "ĠMath": 4912,
      "ĠMull": 4913,
      "ĠMamba": 4914,
      "rens": 4915,
      "rence": 4916,
      "ides": 4917,
      "ided": 4918,
      "Ġsumm": 4919,
      "Ġsupervised": 4920,
      "cales": 4921,
      "ĠIllust": 4922,
      "ĠIEE": 4923,
      "ques": 4924,
      "quis": 4925,
      "Ġansw": 4926,
      "stme": 4927,
      "stantially": 4928,
      "Ġpainful": 4929,
      "raman": 4930,
      "ĠPD": 4931,
      "ĠPE": 4932,
      "ĠPla": 4933,
      "ĠPound": 4934,
      "ĠPass": 4935,
      "ĠPath": 4936,
      "ĠPitts": 4937,
      "ird": 4938,
      "irit": 4939,
      "irwise": 4940,
      "irvonen": 4941,
      "irteent": 4942,
      "Ġkne": 4943,
      "puts": 4944,
      "uming": 4945,
      "ummit": 4946,
      "umelhart": 4947,
      "Ġbytes": 4948,
      "otka": 4949,
      "permodularity": 4950,
      "ĠFran": 4951,
      "ĠFound": 4952,
      "ĠFix": 4953,
      "ĠField": 4954,
      "ĠFAV": 4955,
      "ĠFIFO": 4956,
      "Ġdissim": 4957,
      "Ġdistill": 4958,
      "Ġdisplay": 4959,
      "Ġdisentangling": 4960,
      "Ġdissemin": 4961,
      "Ġapparent": 4962,
      "ĠHuman": 4963,
      "ĠHyperparameters": 4964,
      "ĠHochreiter": 4965,
      "ĠHashing": 4966,
      "ĠHirvonen": 4967,
      "aptive": 4968,
      "Ġalong": 4969,
      "Ġaltering": 4970,
      "Ġspin": 4971,
      "Ġspike": 4972,
      "Ġspirit": 4973,
      "Ġhad": 4974,
      "Ġarithme": 4975,
      "Ġlost": 4976,
      "larao": 4977,
      "Ġmatter": 4978,
      "underst": 4979,
      "Ġaccep": 4980,
      "Ġaccor": 4981,
      "ĠUsing": 4982,
      "ĠUsz": 4983,
      "ĠNo": 4984,
      "ĠNational": 4985,
      "ĠNak": 4986,
      "ĠNov": 4987,
      "ights": 4988,
      "Ġdev": 4989,
      "Ġdemon": 4990,
      "rupt": 4991,
      "ĠInference": 4992,
      "ĠIntu": 4993,
      "ĠIntelligence": 4994,
      "ĠInterpret": 4995,
      "plifying": 4996,
      "hern": 4997,
      "tributing": 4998,
      "ĠOver": 4999,
      "ĠOther": 5000,
      "ĠOne": 5001,
      "ĠOmit": 5002,
      "ĠOlshausen": 5003,
      "ĠOscillatory": 5004,
      "thology": 5005,
      "Ġjust": 5006,
      "Ġjour": 5007,
      "adem": 5008,
      "adversarial": 5009,
      "100": 5010,
      "104": 5011,
      "1000": 5012,
      "1088": 5013,
      "ached": 5014,
      "aclan": 5015,
      "ĠWei": 5016,
      "Ġperhaps": 5017,
      "Ġperiod": 5018,
      "Ġforming": 5019,
      "Ġformation": 5020,
      "Ġformul": 5021,
      "Ġ002": 5022,
      "Ġ019": 5023,
      "Ġ037": 5024,
      "Ġintercon": 5025,
      "Ġinterchange": 5026,
      "Ġinternational": 5027,
      "Ġintersection": 5028,
      "Ġshap": 5029,
      "Ġshared": 5030,
      "Ġwhenever": 5031,
      "Ġnotable": 5032,
      "etworks": 5033,
      "Ġactivating": 5034,
      "Ġinteres": 5035,
      "Ġsetups": 5036,
      "Ġdistribucin": 5037,
      "ifies": 5038,
      "ifest": 5039,
      "ĠJul": 5040,
      "ĠJones": 5041,
      "keys": 5042,
      "Ġchunks": 5043,
      "Ġgenerated": 5044,
      "fined": 5045,
      "Ġimpose": 5046,
      "berson": 5047,
      "bset": 5048,
      "Ġ43": 5049,
      "Ġ468": 5050,
      "Ġ49152": 5051,
      "endment": 5052,
      "duce": 5053,
      "lip": 5054,
      "lies": 5055,
      "Ġlocality": 5056,
      "Ġrise": 5057,
      "Ġsampling": 5058,
      "Ġsomewh": 5059,
      "ĠVb": 5060,
      "ĠVari": 5061,
      "ĠVemp": 5062,
      "ĠVien": 5063,
      "ĠVaswani": 5064,
      "Ġunit": 5065,
      "Ġunits": 5066,
      "Ġunbounded": 5067,
      "Ġexpression": 5068,
      "ĠKe": 5069,
      "ĠKr": 5070,
      "ĠKumar": 5071,
      "ĠKempe": 5072,
      "vidence": 5073,
      "Ġseem": 5074,
      "Ġseeds": 5075,
      "Ġcoefficient": 5076,
      "Ġprefr": 5077,
      "Ġpreparing": 5078,
      "Ġpreval": 5079,
      "Ġpreprint": 5080,
      "Ġ+)": 5081,
      "poses": 5082,
      "possi": 5083,
      "positive": 5084,
      "ximum": 5085,
      "Ġrespective": 5086,
      "Ġalloc": 5087,
      "ĠRev": 5088,
      "ĠReformer": 5089,
      "ĠReasoning": 5090,
      "upis": 5091,
      "Ġ31": 5092,
      "Ġoverwhe": 5093,
      "rectly": 5094,
      "Ġequality": 5095,
      "Ġefficiency": 5096,
      "Ġefforts": 5097,
      "ularization": 5098,
      "Ġsimply": 5099,
      "Ġsimulations": 5100,
      "echanism": 5101,
      "ney": 5102,
      "negligible": 5103,
      "Ġoutlying": 5104,
      "Ġoutline": 5105,
      "Ġenable": 5106,
      "Ġenfor": 5107,
      "Ġenables": 5108,
      "Ġenhances": 5109,
      "Ġadvanced": 5110,
      "Ġdocument": 5111,
      "Ġkeep": 5112,
      "Ġapproximating": 5113,
      "Ġapproximates": 5114,
      "ĠYu": 5115,
      "ĠYou": 5116,
      "Ġconnecting": 5117,
      "respectively": 5118,
      "pagating": 5119,
      "anding": 5120,
      "ĠWu": 5121,
      "ĠWide": 5122,
      "ĠWilliams": 5123,
      "ĠWarren": 5124,
      "cepts": 5125,
      "Ġ)/": 5126,
      "Ġ):": 5127,
      "Ġtransmis": 5128,
      "Ġnotion": 5129,
      "Ġnonuniform": 5130,
      "responding": 5131,
      "proceedings": 5132,
      "propagating": 5133,
      "deep": 5134,
      "Ġspecies": 5135,
      "Ġspecified": 5136,
      "Ġclassif": 5137,
      "009": 5138,
      "0044": 5139,
      "lower": 5140,
      "ostrom": 5141,
      "Ġtasked": 5142,
      "Ġemph": 5143,
      "Ġemploy": 5144,
      "Ġdiscrete": 5145,
      "akers": 5146,
      "akko": 5147,
      "particles": 5148,
      "enging": 5149,
      "acting": 5150,
      "Ġquality": 5151,
      "Ġqualit": 5152,
      "Ġabrupt": 5153,
      "ĠContribution": 5154,
      "ĠConvention": 5155,
      "output": 5156,
      "ĠComplex": 5157,
      "Ġincid": 5158,
      "Ġrelu": 5159,
      "Ġrelation": 5160,
      "Ġrelates": 5161,
      "Ġverify": 5162,
      "Ġversus": 5163,
      "Ġsubdivid": 5164,
      "Ġsubstantially": 5165,
      "111": 5166,
      "115": 5167,
      "1183": 5168,
      "1162": 5169,
      "ergence": 5170,
      "Ġdecide": 5171,
      "Ġdecoding": 5172,
      "Ġdecoders": 5173,
      "Ġdeclarao": 5174,
      "Ġtranslates": 5175,
      "Ġdifferential": 5176,
      "manent": 5177,
      "Ġunderg": 5178,
      "Ġundire": 5179,
      "Ġsocial": 5180,
      "ously": 5181,
      "ĠProb": 5182,
      "ĠProof": 5183,
      "ĠProtocols": 5184,
      "020": 5185,
      "02103": 5186,
      "ĠAttemp": 5187,
      "weighted": 5188,
      "192": 5189,
      "1902": 5190,
      "1958": 5191,
      "19936": 5192,
      "Ġ62": 5193,
      "Ġ8192": 5194,
      "Ġlogits": 5195,
      "ĠXia": 5196,
      "Ġdifferently": 5197,
      "Ġrow": 5198,
      "Ġroles": 5199,
      "time": 5200,
      "timal": 5201,
      "timate": 5202,
      "elling": 5203,
      "Ġassimil": 5204,
      "Ġspecifically": 5205,
      "usive": 5206,
      "values": 5207,
      "Ġ1996": 5208,
      "Ġ1949": 5209,
      "Ġ1993": 5210,
      "Ġ1983": 5211,
      "Ġ1986": 5212,
      "Ġ1987": 5213,
      "ieee": 5214,
      "sketch": 5215,
      "ĠZj": 5216,
      "ĠZou": 5217,
      "Ġfeasible": 5218,
      "Ġbackwards": 5219,
      "Ġclassical": 5220,
      "165": 5221,
      "168": 5222,
      "ĠDean": 5223,
      "ĠDeforms": 5224,
      "Ġassuming": 5225,
      "code": 5226,
      "Ġselection": 5227,
      "Ġselected": 5228,
      "Ġselectivity": 5229,
      "Ġpresence": 5230,
      "Ġblockmodels": 5231,
      "learned": 5232,
      "Ġ103": 5233,
      "neurons": 5234,
      "ĠQr": 5235,
      "Ġinformal": 5236,
      "Ġinformally": 5237,
      "ĠApproximate": 5238,
      "Ġintroduces": 5239,
      "conom": 5240,
      "computation": 5241,
      "dire": 5242,
      "ditive": 5243,
      "differen": 5244,
      "directly": 5245,
      "ĠSuomela": 5246,
      "ĠDye": 5247,
      "ĠDyi": 5248,
      "ĠDyLN": 5249,
      "069": 5250,
      "06016": 5251,
      "pecially": 5252,
      "Ġaffect": 5253,
      "ators": 5254,
      "ĠAnglu": 5255,
      "ova": 5256,
      "Ġrecover": 5257,
      "Ġrecogn": 5258,
      "Ġconstants": 5259,
      "1219": 5260,
      "1285": 5261,
      "144": 5262,
      "1409": 5263,
      "Ġ{(": 5264,
      "odei": 5265,
      "Ġanalog": 5266,
      "Ġencodes": 5267,
      "Ġ77": 5268,
      "Ġ768": 5269,
      "Ġamplifying": 5270,
      "henba": 5271,
      "Ġobservations": 5272,
      "ircuits": 5273,
      "178": 5274,
      "1711": 5275,
      "1735": 5276,
      "scienced": 5277,
      "Ġtensorbased": 5278,
      "Ġopt": 5279,
      "Ġformalize": 5280,
      "Ġchoose": 5281,
      "Ġchoices": 5282,
      "Ġaffinities": 5283,
      "Ġourselves": 5284,
      "Ġpredominant": 5285,
      "))+": 5286,
      "))+,": 5287,
      "Ġtypically": 5288,
      "Ġelsewhere": 5289,
      "Ġelusive": 5290,
      "Ġhighly": 5291,
      "Ġstudied": 5292,
      "skiy": 5293,
      "ilarly": 5294,
      "Ġpointwise": 5295,
      "Ġincreased": 5296,
      "Ġmanage": 5297,
      "Ġreduces": 5298,
      "Ġextrap": 5299,
      "ĠRolla": 5300,
      "Ġimplements": 5301,
      "Ġimplementing": 5302,
      "agia": 5303,
      "ditionally": 5304,
      "Ġespecially": 5305,
      "Ġsolver": 5306,
      "ĠThat": 5307,
      "ĠThirteent": 5308,
      "Ġcompens": 5309,
      "ĠPairwise": 5310,
      "Ġpossibil": 5311,
      "Ġlevels": 5312,
      "2506": 5313,
      "2503": 5314,
      "7667": 5315,
      "iaud": 5316,
      "Ġassociation": 5317,
      "Ġassociative": 5318,
      "ĠGiakko": 5319,
      "Ġcompare": 5320,
      "Ġcompares": 5321,
      "Ġselfstabil": 5322,
      "column": 5323,
      "nsend": 5324,
      "Ġauthors": 5325,
      "alks": 5326,
      "Ġletter": 5327,
      "Ġsimilarity": 5328,
      "Ġthresholds": 5329,
      "Ġextreme": 5330,
      "emergent": 5331,
      "Ġclosed": 5332,
      "Ġbelong": 5333,
      "Ġevolves": 5334,
      "Ġevolution": 5335,
      "Ġrequiring": 5336,
      "Ġvalidate": 5337,
      "Ġvalidated": 5338,
      "ĠAdaptive": 5339,
      "Ġprobabilistic": 5340,
      "ĠStructure": 5341,
      "ĠStatistical": 5342,
      "Ġexisting": 5343,
      "ĠInternet": 5344,
      "Ġchanging": 5345,
      "Ġstudying": 5346,
      "Ġtemporally": 5347,
      "2023": 5348,
      "Dehghani": 5349,
      "aways": 5350,
      "Ġtopic": 5351,
      "Ġregimes": 5352,
      "Ġproofs": 5353,
      "ĠGeij": 5354,
      "ĠLev": 5355,
      "Ġsimplify": 5356,
      "Ġtrees": 5357,
      "Ġtreating": 5358,
      "Ġagain": 5359,
      "Ġtheoretically": 5360,
      "Ġtheoreticians": 5361,
      "Ġlearns": 5362,
      "Ġproducing": 5363,
      "ĠItal": 5364,
      "Ġhandling": 5365,
      "Ġembedded": 5366,
      "Ġoptimization": 5367,
      "ymptotically": 5368,
      "FrPt": 5369,
      "modynamic": 5370,
      "modules": 5371,
      "errmann": 5372,
      "Ġclare": 5373,
      "Ġinvolve": 5374,
      "Ġreadout": 5375,
      "Ġstochasticity": 5376,
      "Ġconditions": 5377,
      "Ġ2009": 5378,
      "Ġcharacteri": 5379,
      "Ġcharacterized": 5380,
      "Ġlargely": 5381,
      "Ġindividually": 5382,
      "Ġpredictions": 5383,
      "Rev": 5384,
      "Review": 5385,
      "ocamp": 5386,
      "oczkowski": 5387,
      "tish": 5388,
      "Ġeasier": 5389,
      "Ġresemb": 5390,
      "Ġresemble": 5391,
      "Ġconfig": 5392,
      "Ġasymptotics": 5393,
      "Ġsubsystems": 5394,
      "Ġsubsampled": 5395,
      "ĠFinland": 5396,
      "Ġfoundations": 5397,
      "Ġimportance": 5398,
      "Ġspecialized": 5399,
      "Ġexplained": 5400,
      "Ġexplainability": 5401,
      "Ġconstructed": 5402,
      "Ġrelationships": 5403,
      "coun": 5404,
      "eeze": 5405,
      "Ġachie": 5406,
      "Ġcarried": 5407,
      "Ġwalker": 5408,
      "Ġwalkers": 5409,
      "Ġphases": 5410,
      "Ġplot": 5411,
      "Ġplasc": 5412,
      "Ġexecuting": 5413,
      "Ġconsistently": 5414,
      "4996": 5415,
      "689": 5416,
      "eyond": 5417,
      "osite": 5418,
      "ulloch": 5419,
      "Ġendpoints": 5420,
      "Ġsynchron": 5421,
      "Ġserving": 5422,
      "Ġservice": 5423,
      "teria": 5424,
      "Ġcrucially": 5425,
      "Ġmaximum": 5426,
      "artingales": 5427,
      "Ġlist": 5428,
      "Ġcontaining": 5429,
      "ĠRomanian": 5430,
      "Ġtimescales": 5431,
      "Ġscalars": 5432,
      "Ġprecision": 5433,
      "Ġterminology": 5434,
      "Ġpresentation": 5435,
      "Ġreductions": 5436,
      "OCS": 5437,
      "runel": 5438,
      "stein": 5439,
      "Ġtests": 5440,
      "Ġcare": 5441,
      "Ġclaims": 5442,
      "Ġmotivation": 5443,
      "Ġrepeated": 5444,
      "Ġrepeating": 5445,
      "Ġrepetitions": 5446,
      "ĠAlan": 5447,
      "uniformly": 5448,
      "Ġcomposed": 5449,
      "Ġpotential": 5450,
      "Ġimplicitly": 5451,
      "ĠWithout": 5452,
      "Ġsubsequently": 5453,
      "Ġapplicability": 5454,
      "Ġprimarily": 5455,
      "Ġoscillators": 5456,
      "Ġembeddings": 5457,
      "7547": 5458,
      "simpl": 5459,
      "inciples": 5460,
      "Ġcreated": 5461,
      "Ġpurposes": 5462,
      "Ġreflect": 5463,
      "Ġreflects": 5464,
      "Ġreflecting": 5465,
      "Ġvisualization": 5466,
      "ĠAcadem": 5467,
      "ĠSocial": 5468,
      "Ġimproves": 5469,
      "Ġcountry": 5470,
      "Ġleading": 5471,
      "Ġhappening": 5472,
      "Ġdenoted": 5473,
      "Ġstronger": 5474,
      "Choromanski": 5475,
      "Hebbian": 5476,
      "Models": 5477,
      "trainable": 5478,
      "element": 5479,
      "Ġhardware": 5480,
      "ĠBackground": 5481,
      "Ġconverse": 5482,
      "Ġconvergence": 5483,
      "uthor": 5484,
      "ĠSimple": 5485,
      "ĠSimulation": 5486,
      "Ġexternally": 5487,
      "Ġexhibited": 5488,
      "Ġexhibiting": 5489,
      "Ġweaker": 5490,
      "ĠImplications": 5491,
      "ĠFeb": 5492,
      "ĠFeinberg": 5493,
      "ĠFeynman": 5494,
      "Ġarriving": 5495,
      "Ġillustrate": 5496,
      "ĠOptimal": 5497,
      "Ġadjus": 5498,
      "Ġsignificance": 5499,
      "Ġclarify": 5500,
      "Ġclarification": 5501,
      "Ġindicate": 5502,
      "Ġindicates": 5503,
      "Ġindexed": 5504,
      "Ġmethods": 5505,
      "9904": 5506,
      "Gxe": 5507,
      "braham": 5508,
      "boundary": 5509,
      "facts": 5510,
      "factory": 5511,
      "kiran": 5512,
      "matrix": 5513,
      "scalar": 5514,
      "Ġidem": 5515,
      "Ġideas": 5516,
      "Ġtuned": 5517,
      "Ġopposite": 5518,
      "Ġcriteria": 5519,
      "Ġfractions": 5520,
      "Ġnamed": 5521,
      "Ġlinks": 5522,
      "Ġstructural": 5523,
      "Ġconvention": 5524,
      "Ġattempted": 5525,
      "Ġextension": 5526,
      "ĠMcsherry": 5527,
      "ĠModule": 5528,
      "Ġaligned": 5529,
      "Ġalgorithms": 5530,
      "Ġintegral": 5531,
      "Ġintegrate": 5532,
      "Ġhelps": 5533,
      "Ġrotation": 5534,
      "Ġ1991": 5535,
      "Ġqiqj": 5536,
      "Ġminimal": 5537,
      "Ġminimizing": 5538,
      "Ġrecently": 5539,
      "Ġelectron": 5540,
      "Ġelectrical": 5541,
      "Ġbaseline": 5542,
      "Ġautonomously": 5543,
      "Ġprinciple": 5544,
      "Ġregarded": 5545,
      "Ġdirections": 5546,
      "Considering": 5547,
      "Neurons": 5548,
      "Ġaggregated": 5549,
      "092": 5550,
      "1103": 5551,
      "2005": 5552,
      "6698": 5553,
      "664996": 5554,
      "NGEST": 5555,
      "Sparsity": 5556,
      "general": 5557,
      "mlr": 5558,
      "olland": 5559,
      "rdb": 5560,
      "Ġestablished": 5561,
      "ĠsymmetricG": 5562,
      "Ġcausal": 5563,
      "Ġcauses": 5564,
      "Ġinitiated": 5565,
      "Ġinfinity": 5566,
      "Ġinduced": 5567,
      "Ġinductive": 5568,
      "Ġflows": 5569,
      "istorically": 5570,
      "Ġnorms": 5571,
      "Ġlimits": 5572,
      "Ġlimited": 5573,
      "Ġevident": 5574,
      "Ġretrie": 5575,
      "sign": 5576,
      "ĠBarlow": 5577,
      "Ġcontributes": 5578,
      "Ġcontributions": 5579,
      "ĠDao": 5580,
      "ĠDavid": 5581,
      "ĠLLMs": 5582,
      "ĠMotivation": 5583,
      "ĠMann": 5584,
      "ĠMany": 5585,
      "ĠMathematics": 5586,
      "ĠPrez": 5587,
      "ĠFormalism": 5588,
      "Ġdistinction": 5589,
      "Ġcorrectly": 5590,
      "Ġentirely": 5591,
      "Ġadvantages": 5592,
      "ĠWhat": 5593,
      "ĠWhittington": 5594,
      "programs": 5595,
      "Ġemerge": 5596,
      "Ġobjects": 5597,
      "Ġmeaningful": 5598,
      "Ġmanipulation": 5599,
      "Ġstrengthens": 5600,
      "Ġstrengthened": 5601,
      "Ġconfirming": 5602,
      "ĠExperimental": 5603,
      "ĠOpenReview": 5604,
      "Ġsatisfies": 5605,
      "Ġcalculation": 5606,
      "Ġcalculus": 5607,
      "Ġfundamentally": 5608,
      "013220": 5609,
      "Emergent": 5610,
      "Paper": 5611,
      "uzzy": 5612,
      "Ġessentially": 5613,
      "tigation": 5614,
      "Ġslime": 5615,
      "Ġslight": 5616,
      "Ġcolumn": 5617,
      "anoGPT": 5618,
      "Ġretained": 5619,
      "ĠBET": 5620,
      "Ġgroup": 5621,
      "rialize": 5622,
      "ĠAmodei": 5623,
      "Ġproceeds": 5624,
      "ĠSIG": 5625,
      "ĠSIAM": 5626,
      "ĠRNNs": 5627,
      "Ġanchored": 5628,
      "Ġanchoring": 5629,
      "Ġspeakers": 5630,
      "Ġmathematical": 5631,
      "ĠNonetheless": 5632,
      "Ġfocusing": 5633,
      "1090": 5634,
      "Ġ0899": 5635,
      "Ġchallen": 5636,
      "Ġchallenging": 5637,
      "Ġcoincide": 5638,
      "Ġcoincides": 5639,
      "Ġadditional": 5640,
      "Ġdifficulties": 5641,
      "Ġdifficulty": 5642,
      "ĠConnections": 5643,
      "Ġsubmodular": 5644,
      "Ġdecisions": 5645,
      "1806744": 5646,
      "1806689": 5647,
      "Ġeliminate": 5648,
      "Ġeliminates": 5649,
      "Ġsupported": 5650,
      "Ġsupporting": 5651,
      "Ġconfirms": 5652,
      "Ġconfirmed": 5653,
      "Ġcontinue": 5654,
      "ĠSociety": 5655,
      "ĠSocietal": 5656,
      "Ġadjacent": 5657,
      "Ġadjacency": 5658,
      "Ġopportunity": 5659,
      "Ġopportunities": 5660,
      "Ġcriticality": 5661,
      "Ġflexible": 5662,
      "Ġflexibility": 5663,
      "Ġfavorably": 5664,
      "Assume": 5665,
      "Graphs": 5666,
      "IDR": 5667,
      "Reduce": 5668,
      "TunedEnPt": 5669,
      "bdh": 5670,
      "cidrdb": 5671,
      "dinov": 5672,
      "gelka": 5673,
      "gamer": 5674,
      "hutdinov": 5675,
      "livre": 5676,
      "mystery": 5677,
      "pdf": 5678,
      "predic": 5679,
      "riting": 5680,
      "uromorph": 5681,
      "vectors": 5682,
      "zinskiy": 5683,
      "Ġturns": 5684,
      "inductive": 5685,
      "related": 5686,
      "Ġsurpr": 5687,
      "Ġstems": 5688,
      "Ġsquare": 5689,
      "encoding": 5690,
      "Ġintentionally": 5691,
      "Ġmachines": 5692,
      "Ġdominate": 5693,
      "Ġlandmark": 5694,
      "aszke": 5695,
      "Ġhisto": 5696,
      "Ġhope": 5697,
      "Ġstream": 5698,
      "Ġconvex": 5699,
      "ambridge": 5700,
      "Ġprojections": 5701,
      "ĠSussill": 5702,
      "ĠSynapse": 5703,
      "Ġexplicit": 5704,
      "ĠLieRE": 5705,
      "parametric": 5706,
      "ĠPMLR": 5707,
      "ĠPlaying": 5708,
      "ĠParliament": 5709,
      "Ġspectral": 5710,
      "Ġiteration": 5711,
      "Ġdetermine": 5712,
      "Ġforeseeable": 5713,
      "Ġpolynomial": 5714,
      "Ġjustif": 5715,
      "Ġjointly": 5716,
      "ĠJegelka": 5717,
      "Ġimmediately": 5718,
      "echanical": 5719,
      "Ġrarely": 5720,
      "Ġcoarse": 5721,
      "Ġprecludes": 5722,
      "Ġelegant": 5723,
      "Ġdiscovering": 5724,
      "Ġquickly": 5725,
      "Ġabstract": 5726,
      "optas": 5727,
      "Ġfactorizations": 5728,
      "18653": 5729,
      "Ġamplitudes": 5730,
      "ikolov": 5731,
      "Ġremember": 5732,
      "Ġrigorous": 5733,
      "Ġshortcut": 5734,
      "Ġpredictability": 5735,
      "Ġmajority": 5736,
      "approximation": 5737,
      "Ġbenefit": 5738,
      "ĠMcCulloch": 5739,
      "Ġirreducible": 5740,
      "Ġoccurring": 5741,
      "hojaee": 5742,
      "Ġoriginal": 5743,
      "Ġpioneering": 5744,
      "Ġbottlen": 5745,
      "Ġassemblies": 5746,
      "6989": 5747,
      "89707": 5748,
      "Activation": 5749,
      "British": 5750,
      "Eichenba": 5751,
      "LOPS": 5752,
      "LeCun": 5753,
      "Positive": 5754,
      "PhysRev": 5755,
      "Spanish": 5756,
      "Zhou": 5757,
      "ccessful": 5758,
      "courag": 5759,
      "danau": 5760,
      "freq": 5761,
      "github": 5762,
      "grained": 5763,
      "hsenzadeh": 5764,
      "ixth": 5765,
      "koreit": 5766,
      "londel": 5767,
      "lsson": 5768,
      "neco": 5769,
      "olev": 5770,
      "pulses": 5771,
      "schild": 5772,
      "uckman": 5773,
      "ymbol": 5774,
      "zowicz": 5775,
      "Ġtaken": 5776,
      "Ġtriggered": 5777,
      "Ġaverage": 5778,
      "represented": 5779,
      "Ġsterling": 5780,
      "Ġthemselves": 5781,
      "raigniaud": 5782,
      "rauthgamer": 5783,
      "Ġcentralized": 5784,
      "Ġinhibition": 5785,
      "Ġphenomena": 5786,
      "Ġpiece": 5787,
      "nderstanding": 5788,
      "Ġmaterialize": 5789,
      "Ġmoment": 5790,
      "Ġdatasets": 5791,
      "Ġnavigate": 5792,
      "Ġbetter": 5793,
      "Ġbrief": 5794,
      "Ġbarrier": 5795,
      "Ġlatter": 5796,
      "Ġliterature": 5797,
      "assouli": 5798,
      "economics": 5799,
      "ecchetti": 5800,
      "Ġreceive": 5801,
      "Ġreproduce": 5802,
      "Ġredacted": 5803,
      "Ġhypothetical": 5804,
      "Ġhippocamp": 5805,
      "Ġhistorical": 5806,
      "ĠTownsend": 5807,
      "ĠTolman": 5808,
      "ĠTakeaways": 5809,
      "ĠTwelfth": 5810,
      "chlioptas": 5811,
      "ĠBudzinskiy": 5812,
      "ĠBehrens": 5813,
      "ĠAustria": 5814,
      "Ġassigning": 5815,
      "ĠGoldberg": 5816,
      "ĠGasieniec": 5817,
      "ĠSapir": 5818,
      "ĠSalakhutdinov": 5819,
      "Ġattributable": 5820,
      "ĠDabagia": 5821,
      "ĠDavis": 5822,
      "ĠDudek": 5823,
      "ĠDictates": 5824,
      "ĠRothschild": 5825,
      "ĠRuppert": 5826,
      "Ġneuroscience": 5827,
      "Ġneighborhood": 5828,
      "ĠCairns": 5829,
      "ĠCzyzowicz": 5830,
      "ĠMessage": 5831,
      "ĠMassa": 5832,
      "ĠIllustration": 5833,
      "ĠIEEE": 5834,
      "Ġanswer": 5835,
      "stmeier": 5836,
      "ĠPlaut": 5837,
      "ĠPassing": 5838,
      "Ġknew": 5839,
      "ĠFoundations": 5840,
      "ĠFAVOR": 5841,
      "Ġdissimilar": 5842,
      "Ġdistilled": 5843,
      "Ġdissemination": 5844,
      "Ġarithmetic": 5845,
      "understood": 5846,
      "Ġaccepted": 5847,
      "Ġaccording": 5848,
      "ĠUszkoreit": 5849,
      "ĠNakkiran": 5850,
      "Ġdemonst": 5851,
      "ĠIntuition": 5852,
      "ĠOmitted": 5853,
      "10008": 5854,
      "aclanthology": 5855,
      "Ġinterconnection": 5856,
      "Ġinterchangeably": 5857,
      "Ġ46820": 5858,
      "Ġsomewhat": 5859,
      "ĠVempala": 5860,
      "ĠVienna": 5861,
      "Ġcoefficients": 5862,
      "Ġprefrontal": 5863,
      "Ġprevalent": 5864,
      "possibly": 5865,
      "Ġallocation": 5866,
      "Ġoverwhelming": 5867,
      "Ġtransmission": 5868,
      "Ġclassification": 5869,
      "00446": 5870,
      "Ġemployed": 5871,
      "Ġqualitative": 5872,
      "Ġabruptly": 5873,
      "ĠComplexity": 5874,
      "Ġsubdividing": 5875,
      "1183480": 5876,
      "Ġundirected": 5877,
      "ĠAttempts": 5878,
      "different": 5879,
      "0601602103": 5880,
      "ĠAngluin": 5881,
      "sciencedirect": 5882,
      "Ġextrapol": 5883,
      "ĠThirteenth": 5884,
      "Ġpossibilities": 5885,
      "ĠGiakkoupis": 5886,
      "Ġselfstabilizing": 5887,
      "Ġcharacterize": 5888,
      "Ġplascticity": 5889,
      "ĠAcademy": 5890,
      "uromorphic": 5891,
      "ĠSussillo": 5892,
      "Eichenbaum": 5893,
      "Ġhippocampal": 5894
    },
    "merges": [
      [
        "Ġ",
        "t"
      ],
      [
        "Ġ",
        "a"
      ],
      [
        "i",
        "n"
      ],
      [
        "o",
        "n"
      ],
      [
        "h",
        "e"
      ],
      [
        "r",
        "e"
      ],
      [
        "t",
        "i"
      ],
      [
        "č",
        "Ċ"
      ],
      [
        "Ġ",
        "s"
      ],
      [
        "Ġ",
        "o"
      ],
      [
        "t",
        "e"
      ],
      [
        "Ġt",
        "he"
      ],
      [
        "o",
        "r"
      ],
      [
        "Ġo",
        "f"
      ],
      [
        "ti",
        "on"
      ],
      [
        "e",
        "n"
      ],
      [
        "e",
        "r"
      ],
      [
        "r",
        "a"
      ],
      [
        "Ġ",
        "c"
      ],
      [
        "in",
        "g"
      ],
      [
        "Ġ",
        "in"
      ],
      [
        "a",
        "l"
      ],
      [
        "Ġ",
        "w"
      ],
      [
        "e",
        "s"
      ],
      [
        "Ġ",
        "p"
      ],
      [
        "Ġ",
        "f"
      ],
      [
        "i",
        "s"
      ],
      [
        "n",
        "d"
      ],
      [
        "Ġ",
        "m"
      ],
      [
        "Ġ",
        "d"
      ],
      [
        "Ġ",
        "."
      ],
      [
        "Ġ",
        "n"
      ],
      [
        "a",
        "r"
      ],
      [
        "i",
        "t"
      ],
      [
        "r",
        "o"
      ],
      [
        "e",
        "d"
      ],
      [
        "Ġ",
        "b"
      ],
      [
        "i",
        "c"
      ],
      [
        "Ġ",
        "l"
      ],
      [
        "a",
        "tion"
      ],
      [
        "Ġ",
        "e"
      ],
      [
        "Ġa",
        "nd"
      ],
      [
        "Ġt",
        "o"
      ],
      [
        "Ġ",
        "("
      ],
      [
        "a",
        "n"
      ],
      [
        "e",
        "l"
      ],
      [
        "a",
        "s"
      ],
      [
        "e",
        "c"
      ],
      [
        "a",
        "t"
      ],
      [
        "o",
        "d"
      ],
      [
        "Ġ",
        "re"
      ],
      [
        "l",
        "e"
      ],
      [
        "i",
        "m"
      ],
      [
        "a",
        "te"
      ],
      [
        "en",
        "t"
      ],
      [
        "Ġt",
        "h"
      ],
      [
        "o",
        "m"
      ],
      [
        "s",
        "i"
      ],
      [
        "Ġf",
        "or"
      ],
      [
        "c",
        "e"
      ],
      [
        "Ġ",
        "h"
      ],
      [
        "Ġ",
        "T"
      ],
      [
        "c",
        "h"
      ],
      [
        "l",
        "y"
      ],
      [
        "Ġ",
        "B"
      ],
      [
        "Ġ",
        "g"
      ],
      [
        "e",
        "t"
      ],
      [
        "o",
        "w"
      ],
      [
        "Ġs",
        "t"
      ],
      [
        "r",
        "i"
      ],
      [
        "re",
        "s"
      ],
      [
        "Ġc",
        "on"
      ],
      [
        "u",
        "r"
      ],
      [
        "it",
        "h"
      ],
      [
        "Ġ",
        "is"
      ],
      [
        "Ġm",
        "od"
      ],
      [
        "u",
        "t"
      ],
      [
        "te",
        "r"
      ],
      [
        "v",
        "e"
      ],
      [
        "Ġ",
        "2"
      ],
      [
        "Ġ",
        "on"
      ],
      [
        "l",
        "l"
      ],
      [
        "Ġ",
        "v"
      ],
      [
        "Ġw",
        "ith"
      ],
      [
        "c",
        "t"
      ],
      [
        "Ġ",
        "A"
      ],
      [
        "u",
        "s"
      ],
      [
        "u",
        "l"
      ],
      [
        "Ġa",
        "s"
      ],
      [
        "D",
        "H"
      ],
      [
        "Ġmod",
        "el"
      ],
      [
        "a",
        "m"
      ],
      [
        "y",
        "s"
      ],
      [
        "Ġp",
        "ro"
      ],
      [
        "or",
        "m"
      ],
      [
        "Ġ",
        "G"
      ],
      [
        "ĠB",
        "DH"
      ],
      [
        "Ġ",
        "S"
      ],
      [
        "u",
        "n"
      ],
      [
        "Ġa",
        "t"
      ],
      [
        "Ġe",
        "x"
      ],
      [
        "Ġw",
        "e"
      ],
      [
        "Ġb",
        "e"
      ],
      [
        "i",
        "g"
      ],
      [
        "Ġ",
        "D"
      ],
      [
        "Ġ",
        "1"
      ],
      [
        "ti",
        "c"
      ],
      [
        "a",
        "b"
      ],
      [
        "ra",
        "n"
      ],
      [
        "y",
        "n"
      ],
      [
        "Ġ",
        "R"
      ],
      [
        "Ġn",
        "e"
      ],
      [
        "te",
        "m"
      ],
      [
        "Ġ",
        "="
      ],
      [
        "f",
        "orm"
      ],
      [
        "p",
        "p"
      ],
      [
        "Ġc",
        "om"
      ],
      [
        "g",
        "e"
      ],
      [
        "ys",
        "tem"
      ],
      [
        "p",
        "h"
      ],
      [
        "s",
        "e"
      ],
      [
        "Ġ",
        "E"
      ],
      [
        "Ġ",
        "L"
      ],
      [
        "p",
        "a"
      ],
      [
        "Ġs",
        "ystem"
      ],
      [
        "a",
        "y"
      ],
      [
        "Ġ2",
        "0"
      ],
      [
        "te",
        "n"
      ],
      [
        "ra",
        "ph"
      ],
      [
        "ec",
        "t"
      ],
      [
        "e",
        "ar"
      ],
      [
        "Ġst",
        "ate"
      ],
      [
        "Ġ",
        "C"
      ],
      [
        "p",
        "res"
      ],
      [
        "it",
        "y"
      ],
      [
        "Ġ",
        "M"
      ],
      [
        "re",
        "n"
      ],
      [
        "i",
        "d"
      ],
      [
        "Ġs",
        "u"
      ],
      [
        "Ġg",
        "raph"
      ],
      [
        "c",
        "al"
      ],
      [
        "c",
        "tion"
      ],
      [
        "Ġw",
        "h"
      ],
      [
        "te",
        "d"
      ],
      [
        "u",
        "re"
      ],
      [
        "Ġ",
        "I"
      ],
      [
        ")",
        ","
      ],
      [
        "q",
        "u"
      ],
      [
        "Ġa",
        "n"
      ],
      [
        "P",
        "U"
      ],
      [
        "s",
        "t"
      ],
      [
        "Ġp",
        "a"
      ],
      [
        "ra",
        "m"
      ],
      [
        "Ġth",
        "at"
      ],
      [
        "Ġ",
        "P"
      ],
      [
        "ĠT",
        "he"
      ],
      [
        "i",
        "r"
      ],
      [
        "Ġ",
        "k"
      ],
      [
        ")",
        "."
      ],
      [
        "ra",
        "in"
      ],
      [
        "ur",
        "on"
      ],
      [
        "G",
        "PU"
      ],
      [
        "p",
        "ut"
      ],
      [
        "f",
        "f"
      ],
      [
        "u",
        "m"
      ],
      [
        "ran",
        "s"
      ],
      [
        "Ġb",
        "y"
      ],
      [
        "ic",
        "h"
      ],
      [
        "an",
        "g"
      ],
      [
        "et",
        "w"
      ],
      [
        "ten",
        "tion"
      ],
      [
        "o",
        "t"
      ],
      [
        "p",
        "er"
      ],
      [
        "am",
        "ic"
      ],
      [
        "yn",
        "amic"
      ],
      [
        "o",
        "l"
      ],
      [
        "Ġa",
        "re"
      ],
      [
        "Ġwh",
        "ich"
      ],
      [
        "Ġ",
        "F"
      ],
      [
        "Ġd",
        "is"
      ],
      [
        "Ġ",
        "us"
      ],
      [
        "Ġd",
        "ynamic"
      ],
      [
        "Ġa",
        "pp"
      ],
      [
        "Ġ",
        "H"
      ],
      [
        "or",
        "k"
      ],
      [
        "ri",
        "b"
      ],
      [
        "i",
        "v"
      ],
      [
        "W",
        "e"
      ],
      [
        "a",
        "p"
      ],
      [
        "i",
        "l"
      ],
      [
        "Ġa",
        "l"
      ],
      [
        "ct",
        "ure"
      ],
      [
        "Ġdynamic",
        "s"
      ],
      [
        "Ġne",
        "uron"
      ],
      [
        "Ġ",
        "it"
      ],
      [
        "ram",
        "e"
      ],
      [
        "ro",
        "m"
      ],
      [
        "si",
        "on"
      ],
      [
        "Ġs",
        "p"
      ],
      [
        "Ġh",
        "a"
      ],
      [
        "Ġth",
        "is"
      ],
      [
        "e",
        "ren"
      ],
      [
        "i",
        "z"
      ],
      [
        "Ġa",
        "r"
      ],
      [
        "ti",
        "ve"
      ],
      [
        "Ġl",
        "o"
      ],
      [
        "ay",
        "er"
      ],
      [
        "l",
        "a"
      ],
      [
        "ation",
        "s"
      ],
      [
        "m",
        "ent"
      ],
      [
        "a",
        "ge"
      ],
      [
        "t",
        "s"
      ],
      [
        "Ġm",
        "at"
      ],
      [
        ".",
        ","
      ],
      [
        "u",
        "nd"
      ],
      [
        "Ġf",
        "rom"
      ],
      [
        "Ġa",
        "c"
      ],
      [
        "Ġat",
        "tention"
      ],
      [
        "v",
        "er"
      ],
      [
        "Ġ",
        "U"
      ],
      [
        "Ġ",
        "i"
      ],
      [
        "ll",
        "ow"
      ],
      [
        "Ġ",
        "N"
      ],
      [
        "al",
        "ly"
      ],
      [
        "ti",
        "v"
      ],
      [
        "es",
        "s"
      ],
      [
        "ig",
        "h"
      ],
      [
        "rans",
        "form"
      ],
      [
        "Ġd",
        "e"
      ],
      [
        "r",
        "u"
      ],
      [
        "Ġmodel",
        "s"
      ],
      [
        "ĠI",
        "n"
      ],
      [
        "p",
        "l"
      ],
      [
        "x",
        "t"
      ],
      [
        "Ġl",
        "ayer"
      ],
      [
        "ang",
        "u"
      ],
      [
        "g",
        "h"
      ],
      [
        "Ġc",
        "an"
      ],
      [
        "i",
        "te"
      ],
      [
        "he",
        "r"
      ],
      [
        "rame",
        "ter"
      ],
      [
        "re",
        "d"
      ],
      [
        "Ġf",
        "o"
      ],
      [
        "Ġt",
        "im"
      ],
      [
        "Ġp",
        "o"
      ],
      [
        "si",
        "d"
      ],
      [
        "ect",
        "or"
      ],
      [
        "angu",
        "age"
      ],
      [
        "t",
        "rib"
      ],
      [
        "Ġd",
        "i"
      ],
      [
        "Ġs",
        "cal"
      ],
      [
        "Ġre",
        "pres"
      ],
      [
        "trib",
        "u"
      ],
      [
        "Ġ",
        "O"
      ],
      [
        "Ġha",
        "ve"
      ],
      [
        "a",
        "ch"
      ],
      [
        "p",
        "le"
      ],
      [
        "as",
        "on"
      ],
      [
        "ec",
        "tion"
      ],
      [
        "ab",
        "le"
      ],
      [
        "t",
        "h"
      ],
      [
        "ransform",
        "er"
      ],
      [
        "Ġtim",
        "e"
      ],
      [
        "a",
        "in"
      ],
      [
        "in",
        "ear"
      ],
      [
        "Ġre",
        "ason"
      ],
      [
        "ch",
        "ite"
      ],
      [
        "Ġp",
        "ar"
      ],
      [
        "Ġ",
        "j"
      ],
      [
        "Ġ20",
        "2"
      ],
      [
        "Ġar",
        "chite"
      ],
      [
        "a",
        "d"
      ],
      [
        "t",
        "ing"
      ],
      [
        "u",
        "gh"
      ],
      [
        "Ġo",
        "r"
      ],
      [
        "Ġpa",
        "rameter"
      ],
      [
        "Ġreason",
        "ing"
      ],
      [
        "1",
        "0"
      ],
      [
        "b",
        "le"
      ],
      [
        "Ġt",
        "rain"
      ],
      [
        "c",
        "i"
      ],
      [
        "Ġv",
        "ector"
      ],
      [
        "eren",
        "ce"
      ],
      [
        "a",
        "c"
      ],
      [
        "t",
        "o"
      ],
      [
        "ra",
        "l"
      ],
      [
        "Ġ",
        "-"
      ],
      [
        "Ġl",
        "anguage"
      ],
      [
        "Ġfo",
        "llow"
      ],
      [
        "f",
        "erence"
      ],
      [
        "Ġ",
        "We"
      ],
      [
        "Ġp",
        "er"
      ],
      [
        "Ġapp",
        "ro"
      ],
      [
        "Ġfor",
        "m"
      ],
      [
        "Ġ20",
        "1"
      ],
      [
        "Ġ",
        "0"
      ],
      [
        "Ġin",
        "ter"
      ],
      [
        "Ġn",
        "od"
      ],
      [
        "e",
        "en"
      ],
      [
        "Ġs",
        "h"
      ],
      [
        "Ġw",
        "he"
      ],
      [
        "Ġn",
        "ot"
      ],
      [
        "Ġcon",
        "sid"
      ],
      [
        "o",
        "re"
      ],
      [
        "p",
        "re"
      ],
      [
        "r",
        "ic"
      ],
      [
        "un",
        "ction"
      ],
      [
        "etw",
        "ork"
      ],
      [
        "p",
        "s"
      ],
      [
        "u",
        "ral"
      ],
      [
        "en",
        "er"
      ],
      [
        "ĠT",
        "ransformer"
      ],
      [
        "om",
        "e"
      ],
      [
        "Ġrepres",
        "ent"
      ],
      [
        "Ġac",
        "tiv"
      ],
      [
        "en",
        "sion"
      ],
      [
        "Ġf",
        "unction"
      ],
      [
        "en",
        "ce"
      ],
      [
        "Ġin",
        "te"
      ],
      [
        "Ġpar",
        "tic"
      ],
      [
        "pre",
        "t"
      ],
      [
        "Ġs",
        "et"
      ],
      [
        "as",
        "ed"
      ],
      [
        "ear",
        "n"
      ],
      [
        "Ġsu",
        "ch"
      ],
      [
        "Ġdis",
        "tribu"
      ],
      [
        "i",
        "f"
      ],
      [
        "Ġe",
        "t"
      ],
      [
        "Ġ",
        "J"
      ],
      [
        "Ġ",
        "ed"
      ],
      [
        "h",
        "is"
      ],
      [
        "l",
        "es"
      ],
      [
        "ro",
        "ugh"
      ],
      [
        "Ġarchite",
        "cture"
      ],
      [
        "k",
        "e"
      ],
      [
        "Ġc",
        "or"
      ],
      [
        "im",
        "ension"
      ],
      [
        "g",
        "es"
      ],
      [
        "re",
        "e"
      ],
      [
        "Ġc",
        "h"
      ],
      [
        "Ġb",
        "etw"
      ],
      [
        "ate",
        "d"
      ],
      [
        "Ġg",
        "ener"
      ],
      [
        "Ġbetw",
        "een"
      ],
      [
        "f",
        "in"
      ],
      [
        "Ġn",
        "etwork"
      ],
      [
        "ri",
        "x"
      ],
      [
        "m",
        "p"
      ],
      [
        "Ġ",
        "im"
      ],
      [
        "on",
        "d"
      ],
      [
        "Ġth",
        "rough"
      ],
      [
        "yn",
        "ap"
      ],
      [
        "Ġmat",
        "rix"
      ],
      [
        "pret",
        "ation"
      ],
      [
        "b",
        "er"
      ],
      [
        "t",
        "her"
      ],
      [
        "en",
        "s"
      ],
      [
        "ec",
        "h"
      ],
      [
        "pa",
        "ce"
      ],
      [
        "/",
        "/"
      ],
      [
        "b",
        "s"
      ],
      [
        "t",
        "t"
      ],
      [
        "Ġh",
        "tt"
      ],
      [
        "l",
        "o"
      ],
      [
        "Ġ",
        "4"
      ],
      [
        "Ġd",
        "imension"
      ],
      [
        "Ġsystem",
        "s"
      ],
      [
        "Ġit",
        "s"
      ],
      [
        "Ġhtt",
        "ps"
      ],
      [
        "en",
        "d"
      ],
      [
        "er",
        "n"
      ],
      [
        "Ġ",
        ","
      ],
      [
        "R",
        "L"
      ],
      [
        "d",
        "u"
      ],
      [
        "l",
        "i"
      ],
      [
        "ic",
        "i"
      ],
      [
        "Ġh",
        "as"
      ],
      [
        "Ġlo",
        "cal"
      ],
      [
        "ĠU",
        "RL"
      ],
      [
        "earn",
        "ing"
      ],
      [
        ":",
        "//"
      ],
      [
        "m",
        "s"
      ],
      [
        "ra",
        "ction"
      ],
      [
        "an",
        "is"
      ],
      [
        "ig",
        "n"
      ],
      [
        "Ġ",
        "r"
      ],
      [
        "Ġs",
        "am"
      ],
      [
        "Ġs",
        "ome"
      ],
      [
        "al",
        "u"
      ],
      [
        "Ġd",
        "es"
      ],
      [
        "Ġ",
        "V"
      ],
      [
        "Ġ",
        "ra"
      ],
      [
        "Ġ",
        "un"
      ],
      [
        "Ġex",
        "pres"
      ],
      [
        "Ġvector",
        "s"
      ],
      [
        "s",
        "o"
      ],
      [
        "Ġ",
        ":"
      ],
      [
        "Ġ",
        "K"
      ],
      [
        "or",
        "y"
      ],
      [
        "ic",
        "ation"
      ],
      [
        "v",
        "i"
      ],
      [
        "Ġsp",
        "ar"
      ],
      [
        "i",
        "ll"
      ],
      [
        "o",
        "f"
      ],
      [
        "v",
        "id"
      ],
      [
        "on",
        "g"
      ],
      [
        "Ġs",
        "e"
      ],
      [
        "Ġc",
        "o"
      ],
      [
        "al",
        "l"
      ],
      [
        "Ġp",
        "re"
      ],
      [
        "Ġcom",
        "put"
      ],
      [
        "Ġneuron",
        "s"
      ],
      [
        "ru",
        "cture"
      ],
      [
        "Ġ",
        "+"
      ],
      [
        "or",
        "t"
      ],
      [
        "Ġin",
        "ference"
      ],
      [
        "ran",
        "k"
      ],
      [
        "i",
        "tion"
      ],
      [
        "ar",
        "i"
      ],
      [
        "Ġinter",
        "pretation"
      ],
      [
        "T",
        "he"
      ],
      [
        "p",
        "o"
      ],
      [
        "x",
        "im"
      ],
      [
        "Ġn",
        "at"
      ],
      [
        "Ġre",
        "s"
      ],
      [
        "ern",
        "el"
      ],
      [
        "Ġa",
        "ll"
      ],
      [
        "ar",
        "d"
      ],
      [
        "ic",
        "al"
      ],
      [
        "Ġto",
        "k"
      ],
      [
        "ĠR",
        "e"
      ],
      [
        "u",
        "p"
      ],
      [
        "Ġ",
        "3"
      ],
      [
        "Ġs",
        "ynap"
      ],
      [
        "Ġo",
        "ver"
      ],
      [
        "Ġk",
        "ernel"
      ],
      [
        "re",
        "ct"
      ],
      [
        "Ġin",
        "put"
      ],
      [
        "Ġn",
        "um"
      ],
      [
        "Ġe",
        "qu"
      ],
      [
        "Ġe",
        "ff"
      ],
      [
        "Ġcom",
        "m"
      ],
      [
        "Ġnod",
        "es"
      ],
      [
        "Ġinte",
        "raction"
      ],
      [
        "Ġgener",
        "al"
      ],
      [
        "Ġst",
        "ructure"
      ],
      [
        "ul",
        "ar"
      ],
      [
        "Ġparameter",
        "s"
      ],
      [
        "b",
        "ased"
      ],
      [
        "Ġs",
        "im"
      ],
      [
        "Ġl",
        "inear"
      ],
      [
        "ech",
        "anis"
      ],
      [
        "n",
        "e"
      ],
      [
        "Ġo",
        "ut"
      ],
      [
        "te",
        "xt"
      ],
      [
        "Ġb",
        "rain"
      ],
      [
        "c",
        "es"
      ],
      [
        "Ġ",
        "en"
      ],
      [
        "Ġa",
        "d"
      ],
      [
        "er",
        "v"
      ],
      [
        "Ġm",
        "echanis"
      ],
      [
        "Ġd",
        "o"
      ],
      [
        "ĠT",
        "his"
      ],
      [
        "Ġpro",
        "vid"
      ],
      [
        "Ġk",
        "e"
      ],
      [
        "Ġus",
        "ing"
      ],
      [
        "Ġsam",
        "e"
      ],
      [
        "Ġnat",
        "ural"
      ],
      [
        "t",
        "ain"
      ],
      [
        "or",
        "g"
      ],
      [
        "as",
        "t"
      ],
      [
        "Ġpo",
        "si"
      ],
      [
        "v",
        "en"
      ],
      [
        "Ġg",
        "iv"
      ],
      [
        "c",
        "ess"
      ],
      [
        "d",
        "ing"
      ],
      [
        "Ġ",
        "he"
      ],
      [
        "Ġm",
        "e"
      ],
      [
        "an",
        "t"
      ],
      [
        "el",
        "y"
      ],
      [
        "ul",
        "d"
      ],
      [
        "Ġappro",
        "xim"
      ],
      [
        "ici",
        "ent"
      ],
      [
        "Ġ",
        "Y"
      ],
      [
        "Ġ",
        "|"
      ],
      [
        "Ġw",
        "ill"
      ],
      [
        "Ġl",
        "e"
      ],
      [
        "Ġcon",
        "n"
      ],
      [
        "res",
        "p"
      ],
      [
        "pa",
        "g"
      ],
      [
        "Ġus",
        "ed"
      ],
      [
        "Ġtrain",
        "ing"
      ],
      [
        "ric",
        "es"
      ],
      [
        "Ġnum",
        "ber"
      ],
      [
        "a",
        "nd"
      ],
      [
        "h",
        "i"
      ],
      [
        "Ġ",
        "W"
      ],
      [
        "Ġo",
        "per"
      ],
      [
        "ation",
        "al"
      ],
      [
        "ce",
        "p"
      ],
      [
        "ur",
        "ing"
      ],
      [
        "Ġwe",
        "igh"
      ],
      [
        "Ġmat",
        "rices"
      ],
      [
        "Ġdes",
        "c"
      ],
      [
        "Ġcomm",
        "un"
      ],
      [
        "Ġ",
        ")"
      ],
      [
        "Ġt",
        "rans"
      ],
      [
        "Ġn",
        "o"
      ],
      [
        "Ġn",
        "on"
      ],
      [
        "resp",
        "ond"
      ],
      [
        "o",
        "und"
      ],
      [
        "p",
        "ro"
      ],
      [
        "Ġm",
        "ore"
      ],
      [
        "od",
        "el"
      ],
      [
        "ab",
        "il"
      ],
      [
        "e",
        "w"
      ],
      [
        "e",
        "red"
      ],
      [
        "h",
        "a"
      ],
      [
        "Ġ",
        "y"
      ],
      [
        "in",
        "e"
      ],
      [
        "Ġs",
        "ign"
      ],
      [
        "as",
        "s"
      ],
      [
        "ul",
        "es"
      ],
      [
        "Ġdi",
        "rect"
      ],
      [
        "Ġper",
        "form"
      ],
      [
        "Ġposi",
        "tive"
      ],
      [
        "Ġgiv",
        "en"
      ],
      [
        "d",
        "e"
      ],
      [
        "f",
        "or"
      ],
      [
        "w",
        "e"
      ],
      [
        "ti",
        "es"
      ],
      [
        "Ġe",
        "ach"
      ],
      [
        "Ġsp",
        "ec"
      ],
      [
        "Ġdi",
        "ff"
      ],
      [
        "Ġscal",
        "e"
      ],
      [
        "Ġconsid",
        "er"
      ],
      [
        "Ġactiv",
        "ation"
      ],
      [
        "Ġcor",
        "respond"
      ],
      [
        "L",
        "U"
      ],
      [
        "c",
        "k"
      ],
      [
        "i",
        "x"
      ],
      [
        "Ġo",
        "ther"
      ],
      [
        "Ġc",
        "l"
      ],
      [
        "Ġin",
        "to"
      ],
      [
        "Ġl",
        "earning"
      ],
      [
        "Ġe",
        "le"
      ],
      [
        "as",
        "k"
      ],
      [
        "ĠE",
        "n"
      ],
      [
        "Ġgraph",
        "s"
      ],
      [
        "ĠF",
        "or"
      ],
      [
        "Ġde",
        "fin"
      ],
      [
        "Ġ:",
        "="
      ],
      [
        "0",
        "0"
      ],
      [
        "l",
        "ow"
      ],
      [
        "o",
        "st"
      ],
      [
        "Ġt",
        "ask"
      ],
      [
        "in",
        "t"
      ],
      [
        "Ġe",
        "m"
      ],
      [
        "Ġdis",
        "c"
      ],
      [
        "iz",
        "e"
      ],
      [
        "ac",
        "k"
      ],
      [
        "Ġfollow",
        "ing"
      ],
      [
        "Ġconsid",
        "ered"
      ],
      [
        "if",
        "ic"
      ],
      [
        "pag",
        "ation"
      ],
      [
        "a",
        "k"
      ],
      [
        "p",
        "ar"
      ],
      [
        "w",
        "o"
      ],
      [
        "Ġ",
        "5"
      ],
      [
        "Ġv",
        "ari"
      ],
      [
        "Ġex",
        "p"
      ],
      [
        "Ġdistribu",
        "tion"
      ],
      [
        "i",
        "es"
      ],
      [
        "Ġ",
        "\""
      ],
      [
        "en",
        "g"
      ],
      [
        "as",
        "e"
      ],
      [
        "Ġwhe",
        "n"
      ],
      [
        "Ġr",
        "ules"
      ],
      [
        "Ġspar",
        "se"
      ],
      [
        "Ġele",
        "ment"
      ],
      [
        "a",
        "ct"
      ],
      [
        "f",
        "ree"
      ],
      [
        "o",
        "uld"
      ],
      [
        "ar",
        "y"
      ],
      [
        "Ġl",
        "ow"
      ],
      [
        "Ġed",
        "ges"
      ],
      [
        "o",
        "s"
      ],
      [
        "Ġ",
        "`"
      ],
      [
        "Ġ",
        "qu"
      ],
      [
        "Ġt",
        "wo"
      ],
      [
        "Ġa",
        "b"
      ],
      [
        "Ġcon",
        "text"
      ],
      [
        "ĠC",
        "on"
      ],
      [
        "Ġsign",
        "al"
      ],
      [
        "o",
        "ut"
      ],
      [
        "o",
        "se"
      ],
      [
        "s",
        "es"
      ],
      [
        "s",
        "ed"
      ],
      [
        "Ġon",
        "e"
      ],
      [
        "ĠS",
        "ection"
      ],
      [
        "ĠC",
        "om"
      ],
      [
        "Ġsh",
        "ow"
      ],
      [
        "ĠRe",
        "LU"
      ],
      [
        "Ġ",
        "<"
      ],
      [
        "en",
        "ted"
      ],
      [
        "at",
        "ing"
      ],
      [
        "Ġpro",
        "cess"
      ],
      [
        "Ġan",
        "y"
      ],
      [
        "Ġpa",
        "ir"
      ],
      [
        "Ġin",
        "c"
      ],
      [
        "Ġw",
        "ay"
      ],
      [
        "Ġre",
        "l"
      ],
      [
        "Ġcon",
        "cep"
      ],
      [
        "Ġv",
        "er"
      ],
      [
        "Ġpro",
        "ble"
      ],
      [
        "Ġsu",
        "b"
      ],
      [
        "la",
        "im"
      ],
      [
        "Ġlayer",
        "s"
      ],
      [
        "Ġpartic",
        "les"
      ],
      [
        "Ġdistribu",
        "ted"
      ],
      [
        "Ġdesc",
        "rib"
      ],
      [
        "1",
        "1"
      ],
      [
        "I",
        "n"
      ],
      [
        "s",
        "s"
      ],
      [
        "u",
        "d"
      ],
      [
        "Ġs",
        "m"
      ],
      [
        "Ġs",
        "pace"
      ],
      [
        "er",
        "g"
      ],
      [
        "Ġd",
        "ec"
      ],
      [
        "Ġl",
        "ar"
      ],
      [
        "ĠR",
        "n"
      ],
      [
        "Ġal",
        "so"
      ],
      [
        "bs",
        "erv"
      ],
      [
        "Ġtok",
        "en"
      ],
      [
        "Ġtrans",
        "l"
      ],
      [
        "Ġdiff",
        "eren"
      ],
      [
        "Ġdisc",
        "us"
      ],
      [
        "m",
        "an"
      ],
      [
        "s",
        "pace"
      ],
      [
        "Ġc",
        "ap"
      ],
      [
        "Ġin",
        "t"
      ],
      [
        "is",
        "e"
      ],
      [
        "Ġl",
        "ong"
      ],
      [
        "ate",
        "s"
      ],
      [
        "Ġv",
        "alu"
      ],
      [
        "Ġpartic",
        "le"
      ],
      [
        "Ġsm",
        "all"
      ],
      [
        "Ġ",
        "und"
      ],
      [
        "Ġs",
        "o"
      ],
      [
        "er",
        "s"
      ],
      [
        "ter",
        "n"
      ],
      [
        "Ġbe",
        "ha"
      ],
      [
        "abil",
        "ity"
      ],
      [
        "a",
        "il"
      ],
      [
        "g",
        "ram"
      ],
      [
        "o",
        "us"
      ],
      [
        "u",
        "al"
      ],
      [
        "w",
        "ard"
      ],
      [
        "Ġp",
        "la"
      ],
      [
        "Ġh",
        "ow"
      ],
      [
        "Ġne",
        "ed"
      ],
      [
        "ĠP",
        "ro"
      ],
      [
        "iz",
        "ation"
      ],
      [
        "Ġwhe",
        "re"
      ],
      [
        "vi",
        "or"
      ],
      [
        "Ġcommun",
        "ication"
      ],
      [
        "Ġbeha",
        "vior"
      ],
      [
        "0",
        "2"
      ],
      [
        "u",
        "res"
      ],
      [
        "Ġ",
        "x"
      ],
      [
        "Ġ",
        "z"
      ],
      [
        "Ġ",
        "up"
      ],
      [
        "or",
        "d"
      ],
      [
        "ĠA",
        "t"
      ],
      [
        "pa",
        "ra"
      ],
      [
        "we",
        "igh"
      ],
      [
        "1",
        "9"
      ],
      [
        "o",
        "g"
      ],
      [
        "Ġ",
        "6"
      ],
      [
        "Ġ",
        "8"
      ],
      [
        "per",
        "im"
      ],
      [
        "Ġlo",
        "g"
      ],
      [
        "Ġ202",
        "5"
      ],
      [
        "Ġnod",
        "e"
      ],
      [
        "lo",
        "ck"
      ],
      [
        "Ġres",
        "ul"
      ],
      [
        "Ġmechanis",
        "m"
      ],
      [
        "Ġoper",
        "ation"
      ],
      [
        "d",
        "o"
      ],
      [
        "t",
        "he"
      ],
      [
        "v",
        "ing"
      ],
      [
        "Ġ",
        "X"
      ],
      [
        "Ġo",
        "b"
      ],
      [
        "ur",
        "ren"
      ],
      [
        "Ġmod",
        "ular"
      ],
      [
        "tic",
        "al"
      ],
      [
        "ab",
        "les"
      ],
      [
        "Ġscal",
        "es"
      ],
      [
        "Ġed",
        "ge"
      ],
      [
        "Ġexpres",
        "si"
      ],
      [
        "Ġconn",
        "ection"
      ],
      [
        "Ġdifferen",
        "t"
      ],
      [
        "perim",
        "ent"
      ],
      [
        "a",
        "tive"
      ],
      [
        "d",
        "en"
      ],
      [
        "l",
        "is"
      ],
      [
        "v",
        "el"
      ],
      [
        "Ġ",
        "ro"
      ],
      [
        "ti",
        "m"
      ],
      [
        "Ġs",
        "ize"
      ],
      [
        "ing",
        "s"
      ],
      [
        "Ġw",
        "ork"
      ],
      [
        "it",
        "s"
      ],
      [
        "ro",
        "du"
      ],
      [
        "el",
        "l"
      ],
      [
        "Ġas",
        "s"
      ],
      [
        "Ġpro",
        "per"
      ],
      [
        "ff",
        "icient"
      ],
      [
        "Ġweigh",
        "ts"
      ],
      [
        "Ġspec",
        "ific"
      ],
      [
        "Ġelement",
        "s"
      ],
      [
        "c",
        "ed"
      ],
      [
        "i",
        "form"
      ],
      [
        "n",
        "ow"
      ],
      [
        "u",
        "si"
      ],
      [
        "v",
        "ol"
      ],
      [
        "v",
        "alu"
      ],
      [
        "Ġf",
        "in"
      ],
      [
        "an",
        "ce"
      ],
      [
        "Ġ1",
        "9"
      ],
      [
        "ĠH",
        "e"
      ],
      [
        "iz",
        "ed"
      ],
      [
        "Ġrepresent",
        "ation"
      ],
      [
        "ven",
        "ess"
      ],
      [
        "eng",
        "th"
      ],
      [
        "Ġund",
        "er"
      ],
      [
        "i",
        "e"
      ],
      [
        "s",
        "k"
      ],
      [
        "y",
        "p"
      ],
      [
        "Ġ",
        "Z"
      ],
      [
        "Ġf",
        "e"
      ],
      [
        "Ġm",
        "ay"
      ],
      [
        "Ġb",
        "ack"
      ],
      [
        "Ġth",
        "an"
      ],
      [
        "ul",
        "ation"
      ],
      [
        "ol",
        "d"
      ],
      [
        "Ġcl",
        "ass"
      ],
      [
        "Ġvari",
        "ables"
      ],
      [
        "do",
        "i"
      ],
      [
        "+",
        ")"
      ],
      [
        "1",
        "6"
      ],
      [
        "r",
        "y"
      ],
      [
        "Ġ",
        "q"
      ],
      [
        "Ġt",
        "er"
      ],
      [
        "Ġd",
        "uring"
      ],
      [
        "at",
        "a"
      ],
      [
        "res",
        "h"
      ],
      [
        "ĠD",
        "e"
      ],
      [
        "ĠM",
        "odel"
      ],
      [
        "Ġnetwork",
        "s"
      ],
      [
        "Ġass",
        "um"
      ],
      [
        ")",
        ":"
      ],
      [
        "c",
        "od"
      ],
      [
        "Ġs",
        "el"
      ],
      [
        "Ġthe",
        "ir"
      ],
      [
        "Ġp",
        "res"
      ],
      [
        "Ġb",
        "ut"
      ],
      [
        "Ġb",
        "lock"
      ],
      [
        "le",
        "ar"
      ],
      [
        "ĠG",
        "y"
      ],
      [
        "Ġ1",
        "0"
      ],
      [
        "id",
        "den"
      ],
      [
        "pl",
        "ic"
      ],
      [
        "ach",
        "ine"
      ],
      [
        "Ġfollow",
        "s"
      ],
      [
        "Ġ201",
        "9"
      ],
      [
        "Ġeff",
        "ect"
      ],
      [
        "ne",
        "uron"
      ],
      [
        "Ġke",
        "ys"
      ],
      [
        "Ġpla",
        "usi"
      ],
      [
        "'",
        "s"
      ],
      [
        "p",
        "tion"
      ],
      [
        "p",
        "end"
      ],
      [
        "w",
        "ork"
      ],
      [
        "Ġ",
        "Q"
      ],
      [
        "Ġa",
        "llow"
      ],
      [
        "Ġin",
        "form"
      ],
      [
        "Ġw",
        "ould"
      ],
      [
        "Ġf",
        "rame"
      ],
      [
        "Ġm",
        "ost"
      ],
      [
        "as",
        "tic"
      ],
      [
        "ce",
        "ed"
      ],
      [
        "ĠA",
        "pp"
      ],
      [
        "ĠG",
        "s"
      ],
      [
        "Ġex",
        "periment"
      ],
      [
        "Ġsu",
        "fficient"
      ],
      [
        "ot",
        "h"
      ],
      [
        "Ġus",
        "e"
      ],
      [
        "mp",
        "ir"
      ],
      [
        "li",
        "ke"
      ],
      [
        "Ġse",
        "qu"
      ],
      [
        "ĠCom",
        "put"
      ],
      [
        "Ġint",
        "rodu"
      ],
      [
        "Ġframe",
        "work"
      ],
      [
        "5",
        "6"
      ],
      [
        "T",
        "his"
      ],
      [
        "a",
        "v"
      ],
      [
        "c",
        "u"
      ],
      [
        "c",
        "on"
      ],
      [
        "c",
        "om"
      ],
      [
        "d",
        "i"
      ],
      [
        "Ġ",
        "ent"
      ],
      [
        "Ġc",
        "ase"
      ],
      [
        "nd",
        "om"
      ],
      [
        "Ġm",
        "in"
      ],
      [
        "Ġb",
        "i"
      ],
      [
        "Ġth",
        "resh"
      ],
      [
        "Ġon",
        "ly"
      ],
      [
        "ĠS",
        "u"
      ],
      [
        "Ġex",
        "am"
      ],
      [
        "ĠD",
        "y"
      ],
      [
        "Ġi",
        "f"
      ],
      [
        "ĠN",
        "e"
      ],
      [
        "ple",
        "ment"
      ],
      [
        "pro",
        "pagation"
      ],
      [
        "low",
        "rank"
      ],
      [
        "Ġpair",
        "s"
      ],
      [
        "Ġproble",
        "m"
      ],
      [
        "ĠAt",
        "tention"
      ],
      [
        "0",
        "6"
      ],
      [
        "b",
        "ly"
      ],
      [
        "o",
        "p"
      ],
      [
        "p",
        "ec"
      ],
      [
        "Ġa",
        "ff"
      ],
      [
        "he",
        "s"
      ],
      [
        "ra",
        "c"
      ],
      [
        "es",
        "t"
      ],
      [
        "Ġf",
        "act"
      ],
      [
        "at",
        "or"
      ],
      [
        "ĠA",
        "n"
      ],
      [
        "ĠL",
        "inear"
      ],
      [
        "ĠL",
        "earning"
      ],
      [
        "Ġstate",
        "ment"
      ],
      [
        "ĠC",
        "laim"
      ],
      [
        "um",
        "an"
      ],
      [
        "Ġtrain",
        "ed"
      ],
      [
        "Ġra",
        "ndom"
      ],
      [
        "Ġke",
        "y"
      ],
      [
        "hi",
        "b"
      ],
      [
        "weigh",
        "ting"
      ],
      [
        "lis",
        "h"
      ],
      [
        ".",
        "<"
      ],
      [
        "1",
        "3"
      ],
      [
        "N",
        "orm"
      ],
      [
        "j",
        "ect"
      ],
      [
        "l",
        "u"
      ],
      [
        "o",
        "u"
      ],
      [
        "o",
        "v"
      ],
      [
        "Ġ",
        "xt"
      ],
      [
        "Ġs",
        "te"
      ],
      [
        "Ġw",
        "as"
      ],
      [
        "Ġb",
        "ased"
      ],
      [
        "ic",
        "ro"
      ],
      [
        "Ġl",
        "ength"
      ],
      [
        "ec",
        "ted"
      ],
      [
        "Ġre",
        "c"
      ],
      [
        "Ġh",
        "idden"
      ],
      [
        "Ġcon",
        "c"
      ],
      [
        "Ġcon",
        "st"
      ],
      [
        "Ġpro",
        "gram"
      ],
      [
        "ol",
        "og"
      ],
      [
        "ĠF",
        "ig"
      ],
      [
        "iv",
        "al"
      ],
      [
        "so",
        "ci"
      ],
      [
        "Ġequ",
        "ival"
      ],
      [
        "Ġprovid",
        "e"
      ],
      [
        "ĠEn",
        "g"
      ],
      [
        "Ġdiscus",
        "sion"
      ],
      [
        "1",
        "2"
      ],
      [
        "1",
        "4"
      ],
      [
        "D",
        "E"
      ],
      [
        "b",
        "in"
      ],
      [
        "i",
        "ties"
      ],
      [
        "m",
        "a"
      ],
      [
        "Ġ",
        "{"
      ],
      [
        "Ġ",
        "ru"
      ],
      [
        "Ġs",
        "en"
      ],
      [
        "Ġthe",
        "n"
      ],
      [
        "Ġc",
        "lear"
      ],
      [
        "Ġp",
        "at"
      ],
      [
        "od",
        "e"
      ],
      [
        "Ġan",
        "al"
      ],
      [
        "Ġ202",
        "4"
      ],
      [
        "ens",
        "or"
      ],
      [
        "Ġtok",
        "ens"
      ],
      [
        "Ġsynap",
        "ses"
      ],
      [
        "Ġout",
        "put"
      ],
      [
        "Ġen",
        "cod"
      ],
      [
        "Ġme",
        "m"
      ],
      [
        "Ġme",
        "an"
      ],
      [
        "Ġlar",
        "ge"
      ],
      [
        "Ġob",
        "tain"
      ],
      [
        "Ġinform",
        "ation"
      ],
      [
        "ceed",
        "ings"
      ],
      [
        "ĠEng",
        "lish"
      ],
      [
        "Ġru",
        "le"
      ],
      [
        "1",
        "8"
      ],
      [
        "f",
        "er"
      ],
      [
        "i",
        "ed"
      ],
      [
        "i",
        "an"
      ],
      [
        "x",
        "i"
      ],
      [
        "Ġ",
        "7"
      ],
      [
        "Ġa",
        "m"
      ],
      [
        "Ġa",
        "ct"
      ],
      [
        "he",
        "n"
      ],
      [
        "ti",
        "f"
      ],
      [
        "Ġo",
        "bserv"
      ],
      [
        "ct",
        "ures"
      ],
      [
        "ul",
        "ti"
      ],
      [
        "ĠE",
        "q"
      ],
      [
        "ir",
        "st"
      ],
      [
        "ir",
        "cu"
      ],
      [
        "Ġk",
        "now"
      ],
      [
        "ad",
        "s"
      ],
      [
        "Ġmechanis",
        "ms"
      ],
      [
        "Ġnatural",
        "ly"
      ],
      [
        "Ġdirect",
        "ly"
      ],
      [
        "Ġtransl",
        "ation"
      ],
      [
        "Ġexpressi",
        "veness"
      ],
      [
        "1",
        "7"
      ],
      [
        "c",
        "f"
      ],
      [
        "l",
        "inear"
      ],
      [
        "s",
        "ci"
      ],
      [
        "Ġt",
        "ensor"
      ],
      [
        "Ġo",
        "p"
      ],
      [
        "Ġb",
        "oth"
      ],
      [
        "ĠA",
        "s"
      ],
      [
        "ĠD",
        "E"
      ],
      [
        "ab",
        "s"
      ],
      [
        "Ġne",
        "xt"
      ],
      [
        "Ġrepres",
        "ented"
      ],
      [
        "Ġform",
        "al"
      ],
      [
        "Ġch",
        "o"
      ],
      [
        "Ġcomput",
        "ational"
      ],
      [
        "Ġeff",
        "icient"
      ],
      [
        "Ġdo",
        "es"
      ],
      [
        "Ġdefin",
        "ed"
      ],
      [
        "Ġrules",
        "et"
      ],
      [
        "Ġconcep",
        "t"
      ],
      [
        "urren",
        "t"
      ],
      [
        "Ġmodular",
        "ity"
      ],
      [
        "Ġexam",
        "ple"
      ],
      [
        "Ġaff",
        "in"
      ],
      [
        "P",
        "T"
      ],
      [
        "i",
        "k"
      ],
      [
        "x",
        "iv"
      ],
      [
        "Ġo",
        "ur"
      ],
      [
        "Ġthe",
        "se"
      ],
      [
        "Ġc",
        "ircu"
      ],
      [
        "Ġp",
        "red"
      ],
      [
        "Ġm",
        "ain"
      ],
      [
        "Ġm",
        "ulti"
      ],
      [
        "Ġb",
        "ound"
      ],
      [
        "ic",
        "e"
      ],
      [
        "ic",
        "ally"
      ],
      [
        "Ġre",
        "m"
      ],
      [
        "ys",
        "is"
      ],
      [
        "ĠR",
        "d"
      ],
      [
        "Ġcom",
        "bin"
      ],
      [
        "ĠI",
        "S"
      ],
      [
        "Ġfunction",
        "s"
      ],
      [
        "Ġcor",
        "re"
      ],
      [
        "end",
        "ix"
      ],
      [
        "Ġun",
        "iform"
      ],
      [
        "Ġsynap",
        "se"
      ],
      [
        "Ġapproxim",
        "ate"
      ],
      [
        "Ġtask",
        "s"
      ],
      [
        "ĠPro",
        "ceedings"
      ],
      [
        "Ġproper",
        "ties"
      ],
      [
        "Ġfe",
        "ed"
      ],
      [
        "Ġplausi",
        "bly"
      ],
      [
        "ĠApp",
        "endix"
      ],
      [
        ")",
        ")"
      ],
      [
        "0",
        "7"
      ],
      [
        "9",
        "7"
      ],
      [
        "a",
        "ke"
      ],
      [
        "e",
        "mp"
      ],
      [
        "f",
        "ul"
      ],
      [
        "i",
        "on"
      ],
      [
        "i",
        "le"
      ],
      [
        "i",
        "ke"
      ],
      [
        "m",
        "it"
      ],
      [
        "o",
        "ugh"
      ],
      [
        "Ġ",
        "u"
      ],
      [
        "Ġt",
        "yp"
      ],
      [
        "re",
        "weighting"
      ],
      [
        "Ġs",
        "c"
      ],
      [
        "ra",
        "tion"
      ],
      [
        "Ġe",
        "l"
      ],
      [
        "Ġre",
        "st"
      ],
      [
        "im",
        "it"
      ],
      [
        "Ġh",
        "igh"
      ],
      [
        "Ġh",
        "uman"
      ],
      [
        "Ġg",
        "o"
      ],
      [
        "Ġst",
        "ud"
      ],
      [
        "ri",
        "es"
      ],
      [
        "Ġv",
        "j"
      ],
      [
        "ĠD",
        "x"
      ],
      [
        "id",
        "e"
      ],
      [
        "Ġapp",
        "ear"
      ],
      [
        "tiv",
        "ely"
      ],
      [
        "Ġarchite",
        "ctures"
      ],
      [
        "Ġcomput",
        "ing"
      ],
      [
        "Ġkernel",
        "s"
      ],
      [
        "Ġinput",
        "s"
      ],
      [
        "Ġcap",
        "t"
      ],
      [
        "Ġvalu",
        "es"
      ],
      [
        "Ġconnection",
        "s"
      ],
      [
        "sk",
        "i"
      ],
      [
        "Ġter",
        "ms"
      ],
      [
        "Ġaffin",
        "ity"
      ],
      [
        "B",
        "DH"
      ],
      [
        "F",
        "ig"
      ],
      [
        "a",
        "us"
      ],
      [
        "e",
        "p"
      ],
      [
        "o",
        "ve"
      ],
      [
        "s",
        "is"
      ],
      [
        "s",
        "si"
      ],
      [
        "Ġ",
        "Ġ"
      ],
      [
        "Ġ",
        "ri"
      ],
      [
        "er",
        "ies"
      ],
      [
        "Ġw",
        "ell"
      ],
      [
        "Ġf",
        "DE"
      ],
      [
        "Ġd",
        "ata"
      ],
      [
        "ar",
        "k"
      ],
      [
        "ar",
        "xiv"
      ],
      [
        "Ġe",
        "mpir"
      ],
      [
        "as",
        "es"
      ],
      [
        "Ġbe",
        "en"
      ],
      [
        "Ġbe",
        "ing"
      ],
      [
        "Ġcom",
        "ple"
      ],
      [
        "Ġpa",
        "per"
      ],
      [
        "il",
        "ar"
      ],
      [
        "Ġpo",
        "int"
      ],
      [
        "Ġscal",
        "ing"
      ],
      [
        "tribu",
        "ted"
      ],
      [
        "Ġ-",
        "-"
      ],
      [
        "fin",
        "ition"
      ],
      [
        "ix",
        "ed"
      ],
      [
        "Ġexp",
        "ect"
      ],
      [
        "Ġinc",
        "re"
      ],
      [
        "Ġresul",
        "ts"
      ],
      [
        "Ġunder",
        "st"
      ],
      [
        "Ġback",
        "propagation"
      ],
      [
        "Ġmem",
        "ory"
      ],
      [
        "i",
        "re"
      ],
      [
        "i",
        "el"
      ],
      [
        "o",
        "k"
      ],
      [
        "p",
        "ort"
      ],
      [
        "v",
        "es"
      ],
      [
        "y",
        "mp"
      ],
      [
        "z",
        "e"
      ],
      [
        "Ġ",
        "["
      ],
      [
        "te",
        "s"
      ],
      [
        "ing",
        "le"
      ],
      [
        "Ġin",
        "d"
      ],
      [
        "is",
        "tic"
      ],
      [
        "Ġm",
        "an"
      ],
      [
        "Ġm",
        "icro"
      ],
      [
        "Ġn",
        "ow"
      ],
      [
        "Ġb",
        "ec"
      ],
      [
        "Ġre",
        "du"
      ],
      [
        "si",
        "tion"
      ],
      [
        "Ġpro",
        "pagation"
      ],
      [
        "orm",
        "al"
      ],
      [
        "Ġex",
        "t"
      ],
      [
        "ĠR",
        "o"
      ],
      [
        "se",
        "qu"
      ],
      [
        "ĠC",
        "h"
      ],
      [
        "Ġsh",
        "ort"
      ],
      [
        "Ġactiv",
        "ations"
      ],
      [
        "Ġset",
        "ting"
      ],
      [
        "Ġim",
        "plement"
      ],
      [
        "Ġexpres",
        "sed"
      ],
      [
        "Ġcomput",
        "ation"
      ],
      [
        "Ġprovid",
        "ed"
      ],
      [
        "Ġapproxim",
        "ation"
      ],
      [
        "Ġsequ",
        "ence"
      ],
      [
        "Ġent",
        "ries"
      ],
      [
        "Ġequival",
        "ent"
      ],
      [
        "Ġpred",
        "ic"
      ],
      [
        "3",
        "6"
      ],
      [
        "a",
        "g"
      ],
      [
        "b",
        "b"
      ],
      [
        "c",
        "y"
      ],
      [
        "d",
        "ition"
      ],
      [
        "g",
        "ree"
      ],
      [
        "g",
        "ative"
      ],
      [
        "o",
        "ch"
      ],
      [
        "p",
        "ri"
      ],
      [
        "p",
        "ect"
      ],
      [
        "s",
        "ing"
      ],
      [
        "u",
        "ch"
      ],
      [
        "Ġ",
        "es"
      ],
      [
        "re",
        "m"
      ],
      [
        "Ġs",
        "ol"
      ],
      [
        "Ġs",
        "ingle"
      ],
      [
        "Ġthe",
        "re"
      ],
      [
        "er",
        "y"
      ],
      [
        "Ġin",
        "de"
      ],
      [
        "al",
        "id"
      ],
      [
        "Ġf",
        "irst"
      ],
      [
        "Ġf",
        "ixed"
      ],
      [
        "ar",
        "t"
      ],
      [
        "ĠT",
        "h"
      ],
      [
        "un",
        "t"
      ],
      [
        "Ġne",
        "w"
      ],
      [
        "Ġcom",
        "p"
      ],
      [
        "ĠL",
        "anguage"
      ],
      [
        "Ġwh",
        "ile"
      ],
      [
        "ĠP",
        "a"
      ],
      [
        "iv",
        "ers"
      ],
      [
        "pl",
        "ed"
      ],
      [
        "Ġpo",
        "ssi"
      ],
      [
        "Ġle",
        "vel"
      ],
      [
        "for",
        "ward"
      ],
      [
        "Ġconcep",
        "ts"
      ],
      [
        "Ġdescrib",
        "ed"
      ],
      [
        "Ġvalu",
        "e"
      ],
      [
        "Ġup",
        "d"
      ],
      [
        "valu",
        "e"
      ],
      [
        "hib",
        "it"
      ],
      [
        "Ġsen",
        "ten"
      ],
      [
        "Ġanal",
        "ysis"
      ],
      [
        "Ġcho",
        "ice"
      ],
      [
        "Ġcorre",
        "l"
      ],
      [
        "iel",
        "d"
      ],
      [
        "2",
        "5"
      ],
      [
        "7",
        "6"
      ],
      [
        "9",
        "6"
      ],
      [
        "E",
        "n"
      ],
      [
        "F",
        "or"
      ],
      [
        "P",
        "E"
      ],
      [
        "e",
        "ver"
      ],
      [
        "i",
        "a"
      ],
      [
        "u",
        "b"
      ],
      [
        "x",
        "pres"
      ],
      [
        "he",
        "d"
      ],
      [
        "Ġc",
        "all"
      ],
      [
        "ro",
        "ss"
      ],
      [
        "Ġb",
        "as"
      ],
      [
        "ent",
        "s"
      ],
      [
        "Ġcon",
        "sis"
      ],
      [
        "Ġas",
        "soci"
      ],
      [
        "ĠG",
        "i"
      ],
      [
        "ĠS",
        "p"
      ],
      [
        "ab",
        "ly"
      ],
      [
        "Ġne",
        "ural"
      ],
      [
        "Ġcom",
        "pa"
      ],
      [
        "Ġapp",
        "l"
      ],
      [
        "Ġi",
        "j"
      ],
      [
        "ĠN",
        "ew"
      ],
      [
        "Ġappro",
        "pri"
      ],
      [
        "Ġspar",
        "s"
      ],
      [
        "Ġsynap",
        "tic"
      ],
      [
        "Ġab",
        "ove"
      ],
      [
        "ĠCon",
        "ference"
      ],
      [
        "Ġsignal",
        "s"
      ],
      [
        "Ġver",
        "y"
      ],
      [
        "Ġsel",
        "f"
      ],
      [
        "pend",
        "ent"
      ],
      [
        "Ġobserv",
        "ed"
      ],
      [
        "sci",
        "ll"
      ],
      [
        "Ġappropri",
        "ate"
      ],
      [
        "A",
        "S"
      ],
      [
        "c",
        "ol"
      ],
      [
        "i",
        "b"
      ],
      [
        "i",
        "al"
      ],
      [
        "n",
        "s"
      ],
      [
        "u",
        "tion"
      ],
      [
        "u",
        "ro"
      ],
      [
        "Ġa",
        "f"
      ],
      [
        "Ġa",
        "ut"
      ],
      [
        "ti",
        "al"
      ],
      [
        "Ġthe",
        "y"
      ],
      [
        "Ġc",
        "ode"
      ],
      [
        "al",
        "k"
      ],
      [
        "Ġf",
        "re"
      ],
      [
        "Ġl",
        "et"
      ],
      [
        "Ġre",
        "al"
      ],
      [
        "ate",
        "n"
      ],
      [
        "ow",
        "er"
      ],
      [
        "ter",
        "m"
      ],
      [
        "Ġwith",
        "out"
      ],
      [
        "us",
        "t"
      ],
      [
        "ĠG",
        "PT"
      ],
      [
        "Ġex",
        "pl"
      ],
      [
        "ĠD",
        "i"
      ],
      [
        "ten",
        "t"
      ],
      [
        "ĠM",
        "achine"
      ],
      [
        "Ġapp",
        "li"
      ],
      [
        "Ġlo",
        "ok"
      ],
      [
        "sid",
        "er"
      ],
      [
        "Ġ201",
        "8"
      ],
      [
        "Ġsh",
        "ould"
      ],
      [
        "Ġsim",
        "ilar"
      ],
      [
        "Ġcorrespond",
        "ing"
      ],
      [
        "Ġem",
        "erg"
      ],
      [
        "Ġqu",
        "eries"
      ],
      [
        "bserv",
        "ation"
      ],
      [
        "Ġlong",
        "er"
      ],
      [
        "Ġro",
        "und"
      ],
      [
        "Ġthresh",
        "old"
      ],
      [
        "olog",
        "y"
      ],
      [
        "Fig",
        "ure"
      ],
      [
        "Ġext",
        "rem"
      ],
      [
        "ĠRo",
        "PE"
      ],
      [
        "0",
        "3"
      ],
      [
        "1",
        "5"
      ],
      [
        "4",
        "5"
      ],
      [
        "b",
        "ed"
      ],
      [
        "e",
        "m"
      ],
      [
        "g",
        "et"
      ],
      [
        "m",
        "ost"
      ],
      [
        "u",
        "ally"
      ],
      [
        "w",
        "ise"
      ],
      [
        "Ġt",
        "ransform"
      ],
      [
        "Ġt",
        "emp"
      ],
      [
        "ra",
        "ct"
      ],
      [
        "ra",
        "di"
      ],
      [
        "Ġc",
        "lo"
      ],
      [
        "Ġp",
        "ul"
      ],
      [
        "Ġb",
        "el"
      ],
      [
        "Ġl",
        "ike"
      ],
      [
        "Ġe",
        "vol"
      ],
      [
        "Ġre",
        "ly"
      ],
      [
        "Ġre",
        "qu"
      ],
      [
        "ĠT",
        "able"
      ],
      [
        "et",
        "ail"
      ],
      [
        "ri",
        "ption"
      ],
      [
        "ur",
        "ce"
      ],
      [
        "Ġ2",
        "56"
      ],
      [
        "Ġv",
        "alid"
      ],
      [
        "ĠA",
        "d"
      ],
      [
        "Ġpro",
        "b"
      ],
      [
        "ĠG",
        "x"
      ],
      [
        "ĠS",
        "t"
      ],
      [
        "Ġex",
        "is"
      ],
      [
        "Ġwe",
        "re"
      ],
      [
        "ren",
        "g"
      ],
      [
        "Ġac",
        "ross"
      ],
      [
        "ĠU",
        "n"
      ],
      [
        "ĠIn",
        "tern"
      ],
      [
        "Ġ202",
        "2"
      ],
      [
        "Ġappro",
        "ach"
      ],
      [
        "Ġch",
        "ang"
      ],
      [
        "Ġra",
        "te"
      ],
      [
        "vi",
        "ous"
      ],
      [
        "Ġco",
        "ord"
      ],
      [
        "Ġequ",
        "ations"
      ],
      [
        "Ġle",
        "ast"
      ],
      [
        "Ġweigh",
        "t"
      ],
      [
        "Ġno",
        "ise"
      ],
      [
        "ak",
        "ing"
      ],
      [
        "Ġrel",
        "ations"
      ],
      [
        "Ġsmall",
        "er"
      ],
      [
        "Ġso",
        "urce"
      ],
      [
        "con",
        "text"
      ],
      [
        "Ġpat",
        "tern"
      ],
      [
        "Ġcircu",
        "it"
      ],
      [
        "Ġrest",
        "ric"
      ],
      [
        "Ġstud",
        "y"
      ],
      [
        "Ġunderst",
        "and"
      ],
      [
        "sequ",
        "ent"
      ],
      [
        "bb",
        "ian"
      ],
      [
        "AS",
        "P"
      ],
      [
        "Ġtemp",
        "or"
      ],
      [
        "Ġcoord",
        "in"
      ],
      [
        ")",
        "+"
      ],
      [
        "2",
        "02"
      ],
      [
        "D",
        "e"
      ],
      [
        "a",
        "w"
      ],
      [
        "l",
        "ing"
      ],
      [
        "m",
        "odel"
      ],
      [
        "p",
        "e"
      ],
      [
        "w",
        "w"
      ],
      [
        "z",
        "er"
      ],
      [
        "Ġ",
        "/"
      ],
      [
        "or",
        "ch"
      ],
      [
        "al",
        "ity"
      ],
      [
        "Ġp",
        "r"
      ],
      [
        "ed",
        "ge"
      ],
      [
        "Ġb",
        "u"
      ],
      [
        "Ġto",
        "p"
      ],
      [
        "ec",
        "ond"
      ],
      [
        "od",
        "er"
      ],
      [
        "Ġre",
        "g"
      ],
      [
        "Ġst",
        "reng"
      ],
      [
        "ter",
        "pretation"
      ],
      [
        "us",
        "ter"
      ],
      [
        "Ġpro",
        "of"
      ],
      [
        "ĠG",
        "e"
      ],
      [
        "ĠL",
        "e"
      ],
      [
        "ĠL",
        "ayer"
      ],
      [
        "pa",
        "rameter"
      ],
      [
        "Ġsu",
        "pp"
      ],
      [
        "Ġwh",
        "at"
      ],
      [
        "Ġpa",
        "ges"
      ],
      [
        "iv",
        "id"
      ],
      [
        "gh",
        "t"
      ],
      [
        "Ġ202",
        "0"
      ],
      [
        "to",
        "col"
      ],
      [
        "Ġfollow",
        "ed"
      ],
      [
        "Ġrepresent",
        "ing"
      ],
      [
        "ĠJ",
        "o"
      ],
      [
        "ech",
        "n"
      ],
      [
        "ici",
        "al"
      ],
      [
        "vi",
        "ew"
      ],
      [
        "Ġpre",
        "vious"
      ],
      [
        "Ġsim",
        "pl"
      ],
      [
        "Ġhe",
        "ads"
      ],
      [
        "Ġcorrespond",
        "ence"
      ],
      [
        "Ġshow",
        "n"
      ],
      [
        "para",
        "tion"
      ],
      [
        "Ġfin",
        "ding"
      ],
      [
        "ĠModel",
        "s"
      ],
      [
        "Ġallow",
        "s"
      ],
      [
        "Ġexperiment",
        "s"
      ],
      [
        "pec",
        "tive"
      ],
      [
        "Norm",
        "free"
      ],
      [
        "Ġste",
        "p"
      ],
      [
        "tif",
        "icial"
      ],
      [
        "Ġknow",
        "n"
      ],
      [
        "Ġpossi",
        "ble"
      ],
      [
        "Ġcall",
        "ed"
      ],
      [
        "Ġextrem",
        "ely"
      ],
      [
        ")",
        ")."
      ],
      [
        "2",
        "0"
      ],
      [
        "2",
        "3"
      ],
      [
        "3",
        "7"
      ],
      [
        "c",
        "ing"
      ],
      [
        "g",
        "or"
      ],
      [
        "m",
        "ed"
      ],
      [
        "r",
        "ing"
      ],
      [
        "s",
        "ynap"
      ],
      [
        "}",
        ","
      ],
      [
        "Ġt",
        "re"
      ],
      [
        "Ġt",
        "ransformer"
      ],
      [
        "Ġa",
        "g"
      ],
      [
        "in",
        "d"
      ],
      [
        "in",
        "k"
      ],
      [
        "on",
        "al"
      ],
      [
        "Ġs",
        "een"
      ],
      [
        "Ġo",
        "scill"
      ],
      [
        "te",
        "x"
      ],
      [
        "Ġthe",
        "ore"
      ],
      [
        "Ġthe",
        "ory"
      ],
      [
        "Ġp",
        "ower"
      ],
      [
        "Ġm",
        "erg"
      ],
      [
        "Ġl",
        "earn"
      ],
      [
        "Ġl",
        "imit"
      ],
      [
        "at",
        "h"
      ],
      [
        "om",
        "an"
      ],
      [
        "Ġv",
        "i"
      ],
      [
        "ĠA",
        "I"
      ],
      [
        "Ġpro",
        "du"
      ],
      [
        "ĠE",
        "uro"
      ],
      [
        "ĠI",
        "t"
      ],
      [
        "ol",
        "ding"
      ],
      [
        "Ġha",
        "nd"
      ],
      [
        "Ġlo",
        "ss"
      ],
      [
        "pl",
        "es"
      ],
      [
        "Ġor",
        "th"
      ],
      [
        "ac",
        "ro"
      ],
      [
        "to",
        "tic"
      ],
      [
        "Ġper",
        "s"
      ],
      [
        "Ġ201",
        "4"
      ],
      [
        "if",
        "ied"
      ],
      [
        "Ġgener",
        "ally"
      ],
      [
        "Ġdes",
        "ign"
      ],
      [
        "Ġgeneral",
        "ization"
      ],
      [
        "Ġem",
        "bed"
      ],
      [
        "Ġprocess",
        "ing"
      ],
      [
        "Ġproble",
        "ms"
      ],
      [
        "man",
        "tic"
      ],
      [
        "ĠHe",
        "bbian"
      ],
      [
        "Ġeffect",
        "s"
      ],
      [
        "ĠNe",
        "ural"
      ],
      [
        "Ġrec",
        "urrent"
      ],
      [
        "Ġobtain",
        "ed"
      ],
      [
        "Ġop",
        "tim"
      ],
      [
        "ymp",
        "totic"
      ],
      [
        "och",
        "astic"
      ],
      [
        "Ġcomp",
        "u"
      ],
      [
        "ib",
        "at"
      ],
      [
        "ĠIntern",
        "ational"
      ],
      [
        "zer",
        "o"
      ],
      [
        "4",
        "4"
      ],
      [
        "9",
        "8"
      ],
      [
        "F",
        "r"
      ],
      [
        "P",
        "t"
      ],
      [
        "S",
        "A"
      ],
      [
        "S",
        "N"
      ],
      [
        "a",
        "rac"
      ],
      [
        "c",
        "l"
      ],
      [
        "m",
        "od"
      ],
      [
        "n",
        "ed"
      ],
      [
        "n",
        "orm"
      ],
      [
        "t",
        "y"
      ],
      [
        "Ġ",
        "čĊ"
      ],
      [
        "Ġt",
        "echn"
      ],
      [
        "or",
        "s"
      ],
      [
        "en",
        "ces"
      ],
      [
        "er",
        "r"
      ],
      [
        "Ġc",
        "la"
      ],
      [
        "Ġin",
        "vol"
      ],
      [
        "is",
        "on"
      ],
      [
        "is",
        "tributed"
      ],
      [
        "ar",
        "ch"
      ],
      [
        "ro",
        "und"
      ],
      [
        "Ġe",
        "ven"
      ],
      [
        "at",
        "ory"
      ],
      [
        "Ġre",
        "ad"
      ],
      [
        "Ġth",
        "ose"
      ],
      [
        "si",
        "ve"
      ],
      [
        "ce",
        "ment"
      ],
      [
        "Ġg",
        "radi"
      ],
      [
        "Ġst",
        "ochastic"
      ],
      [
        "Ġcon",
        "dition"
      ],
      [
        "Ġpro",
        "mp"
      ],
      [
        "Ġ1",
        "3"
      ],
      [
        "Ġ20",
        "0"
      ],
      [
        "ren",
        "ch"
      ],
      [
        "il",
        "ity"
      ],
      [
        "sion",
        "s"
      ],
      [
        "Ġha",
        "pp"
      ],
      [
        "ĠU",
        "SA"
      ],
      [
        "Ġ202",
        "1"
      ],
      [
        "Ġwhe",
        "ther"
      ],
      [
        "Ġch",
        "arac"
      ],
      [
        "bs",
        "ection"
      ],
      [
        "Ġr",
        "un"
      ],
      [
        "Ġse",
        "e"
      ],
      [
        "Ġpre",
        "paration"
      ],
      [
        "Ġres",
        "pect"
      ],
      [
        "Ġinteraction",
        "s"
      ],
      [
        "Ġsim",
        "ple"
      ],
      [
        "Ġprovid",
        "es"
      ],
      [
        "Ġdesc",
        "ription"
      ],
      [
        "int",
        "on"
      ],
      [
        "par",
        "ison"
      ],
      [
        "Ġexp",
        "ected"
      ],
      [
        "Ġab",
        "out"
      ],
      [
        "Ġlar",
        "g"
      ],
      [
        "av",
        "y"
      ],
      [
        "Ġmin",
        "ibat"
      ],
      [
        "Ġbi",
        "as"
      ],
      [
        "ĠSu",
        "bsection"
      ],
      [
        "ĠIS",
        "SN"
      ],
      [
        "ough",
        "t"
      ],
      [
        "Ġind",
        "ivid"
      ],
      [
        "Ġimplement",
        "ation"
      ],
      [
        "Ġpredic",
        "tion"
      ],
      [
        "ivers",
        "al"
      ],
      [
        "Ġassoci",
        "ated"
      ],
      [
        "Ġspars",
        "ity"
      ],
      [
        "Ġappli",
        "ed"
      ],
      [
        "ract",
        "ing"
      ],
      [
        "Ġpul",
        "se"
      ],
      [
        "Ġprob",
        "ability"
      ],
      [
        "Ġchang",
        "es"
      ],
      [
        "Ġtempor",
        "al"
      ],
      [
        "Ġpers",
        "pective"
      ],
      [
        "P",
        "ro"
      ],
      [
        "R",
        "e"
      ],
      [
        "S",
        "H"
      ],
      [
        "a",
        "tic"
      ],
      [
        "c",
        "ted"
      ],
      [
        "e",
        "h"
      ],
      [
        "g",
        "u"
      ],
      [
        "i",
        "p"
      ],
      [
        "o",
        "c"
      ],
      [
        "p",
        "t"
      ],
      [
        "t",
        "ur"
      ],
      [
        "w",
        "ith"
      ],
      [
        "Ġ",
        "9"
      ],
      [
        "Ġ",
        "id"
      ],
      [
        "Ġt",
        "ran"
      ],
      [
        "Ġa",
        "ble"
      ],
      [
        "re",
        "ad"
      ],
      [
        "ti",
        "s"
      ],
      [
        "ti",
        "ally"
      ],
      [
        "er",
        "ve"
      ],
      [
        "er",
        "tain"
      ],
      [
        "Ġw",
        "ord"
      ],
      [
        "es",
        "e"
      ],
      [
        "Ġp",
        "rac"
      ],
      [
        "Ġm",
        "on"
      ],
      [
        "Ġm",
        "achine"
      ],
      [
        "Ġm",
        "uch"
      ],
      [
        "Ġd",
        "en"
      ],
      [
        "Ġn",
        "n"
      ],
      [
        "ro",
        "ad"
      ],
      [
        "Ġb",
        "road"
      ],
      [
        "Ġe",
        "as"
      ],
      [
        "Ġre",
        "se"
      ],
      [
        "Ġre",
        "la"
      ],
      [
        "Ġth",
        "ree"
      ],
      [
        "om",
        "in"
      ],
      [
        "ow",
        "ever"
      ],
      [
        "res",
        "s"
      ],
      [
        "Ġcon",
        "f"
      ],
      [
        "Ġcon",
        "t"
      ],
      [
        "ll",
        "el"
      ],
      [
        "ul",
        "ate"
      ],
      [
        "Ġas",
        "ymptotic"
      ],
      [
        "tic",
        "le"
      ],
      [
        "pres",
        "ent"
      ],
      [
        "Ġsu",
        "it"
      ],
      [
        "Ġsu",
        "bs"
      ],
      [
        "ĠF",
        "in"
      ],
      [
        "ĠH",
        "inton"
      ],
      [
        "la",
        "in"
      ],
      [
        "ĠN",
        "etwork"
      ],
      [
        "Ġde",
        "gree"
      ],
      [
        "Ġfo",
        "und"
      ],
      [
        "Ġdi",
        "re"
      ],
      [
        "Ġpar",
        "t"
      ],
      [
        "Ġtrain",
        "able"
      ],
      [
        "ci",
        "al"
      ],
      [
        "ac",
        "hes"
      ],
      [
        "Ġrepresent",
        "ations"
      ],
      [
        "if",
        "y"
      ],
      [
        "Ġch",
        "os"
      ],
      [
        "Ġim",
        "port"
      ],
      [
        "anis",
        "h"
      ],
      [
        "Ġco",
        "uld"
      ],
      [
        "po",
        "se"
      ],
      [
        "Ġad",
        "mit"
      ],
      [
        "Ġhe",
        "avy"
      ],
      [
        "Ġy",
        "t"
      ],
      [
        "Ġperform",
        "ed"
      ],
      [
        "Ġperform",
        "ance"
      ],
      [
        "Ġspec",
        "ial"
      ],
      [
        "Ġcorrespond",
        "s"
      ],
      [
        "Ġdefin",
        "ition"
      ],
      [
        "Ġexp",
        "lain"
      ],
      [
        "Ġinc",
        "lu"
      ],
      [
        "Ġrel",
        "ated"
      ],
      [
        "Ġsub",
        "ject"
      ],
      [
        "Ġdescrib",
        "e"
      ],
      [
        "ĠRn",
        "n"
      ],
      [
        "ward",
        "s"
      ],
      [
        "Ġresul",
        "t"
      ],
      [
        "ie",
        "ve"
      ],
      [
        "Ġassum",
        "ption"
      ],
      [
        "Ġintrodu",
        "ced"
      ],
      [
        "Ġthresh",
        "olding"
      ],
      [
        "Ġconst",
        "ru"
      ],
      [
        "Ġprogram",
        "s"
      ],
      [
        "Ġinde",
        "pendent"
      ],
      [
        "hibit",
        "ory"
      ],
      [
        "Ġexpl",
        "an"
      ],
      [
        "Ġexis",
        "ts"
      ],
      [
        "Ġrelations",
        "hi"
      ],
      [
        "parameter",
        "s"
      ],
      [
        "Ġorth",
        "ant"
      ],
      [
        "Ġtran",
        "sition"
      ],
      [
        "Ġchos",
        "en"
      ],
      [
        "4",
        "8"
      ],
      [
        "5",
        "3"
      ],
      [
        "C",
        "M"
      ],
      [
        "E",
        "s"
      ],
      [
        "L",
        "P"
      ],
      [
        "]",
        ","
      ],
      [
        "a",
        "ges"
      ],
      [
[...]
